{"version":"1.0","truncation":{"max_length":500,"strategy":"LongestFirst","stride":0},"padding":{"strategy":"BatchLongest","direction":"Right","pad_to_multiple_of":null,"pad_id":3,"pad_type_id":0,"pad_token":"[PAD]"},"added_tokens":[{"id":0,"special":true,"content":"[UNK]","single_word":false,"lstrip":false,"rstrip":false,"normalized":false},{"id":1,"special":true,"content":"[CLS]","single_word":false,"lstrip":false,"rstrip":false,"normalized":false},{"id":2,"special":true,"content":"[SEP]","single_word":false,"lstrip":false,"rstrip":false,"normalized":false},{"id":3,"special":true,"content":"[PAD]","single_word":false,"lstrip":false,"rstrip":false,"normalized":false},{"id":4,"special":true,"content":"[MASK]","single_word":false,"lstrip":false,"rstrip":false,"normalized":false}],"normalizer":{"type":"Strip","strip_left":true,"strip_right":true},"pre_tokenizer":{"type":"Sequence","pretokenizers":[{"type":"Whitespace"},{"type":"Digits","individual_digits":false}]},"post_processor":{"type":"TemplateProcessing","single":[{"SpecialToken":{"id":"[CLS]","type_id":0}},{"Sequence":{"id":"A","type_id":0}},{"SpecialToken":{"id":"[SEP]","type_id":0}}],"pair":[{"SpecialToken":{"id":"[CLS]","type_id":0}},{"Sequence":{"id":"A","type_id":0}},{"SpecialToken":{"id":"[SEP]","type_id":0}},{"Sequence":{"id":"B","type_id":1}},{"SpecialToken":{"id":"[SEP]","type_id":1}}],"special_tokens":{"[CLS]":{"id":"[CLS]","ids":[1],"tokens":["[CLS]"]},"[SEP]":{"id":"[SEP]","ids":[2],"tokens":["[SEP]"]}}},"decoder":null,"model":{"type":"WordPiece","unk_token":"[UNK]","continuing_subword_prefix":"##","max_input_chars_per_word":100,"vocab":{"[UNK]":0,"[CLS]":1,"[SEP]":2,"[PAD]":3,"[MASK]":4,"\u0019":5,"!":6,"\"":7,"#":8,"$":9,"%":10,"&":11,"'":12,"(":13,")":14,"*":15,"+":16,",":17,"-":18,".":19,"/":20,"0":21,"1":22,"2":23,"3":24,"4":25,"5":26,"6":27,"7":28,"8":29,"9":30,":":31,";":32,"<":33,"=":34,">":35,"?":36,"@":37,"[":38,"\\":39,"]":40,"^":41,"_":42,"`":43,"{":44,"|":45,"}":46,"~":47,"":48,"":49,"¡":50,"£":51,"¥":52,"©":53,"­":54,"®":55,"°":56,"±":57,"²":58,"³":59,"´":60,"µ":61,"·":62,"¹":63,"º":64,"¼":65,"½":66,"À":67,"Á":68,"Ã":69,"Æ":70,"É":71,"Õ":72,"Ö":73,"×":74,"Ú":75,"ß":76,"à":77,"á":78,"â":79,"ã":80,"ä":81,"å":82,"æ":83,"ç":84,"è":85,"é":86,"ê":87,"ë":88,"ì":89,"í":90,"î":91,"ï":92,"ð":93,"ñ":94,"ó":95,"ô":96,"ö":97,"÷":98,"ú":99,"ü":100,"ý":101,"þ":102,"ā":103,"ă":104,"ć":105,"Č":106,"Đ":107,"ē":108,"ě":109,"ğ":110,"ī":111,"ı":112,"ł":113,"ō":114,"ś":115,"ş":116,"Š":117,"ţ":118,"ū":119,"Ɔ":120,"Ǝ":121,"Ɩ":122,"Ƥ":123,"ǎ":124,"ǐ":125,"ǔ":126,"ɑ":127,"ɒ":128,"ɔ":129,"ə":130,"ɡ":131,"ɪ":132,"ʃ":133,"ʊ":134,"ʌ":135,"ʒ":136,"ʝ":137,"ʻ":138,"ʼ":139,"ʿ":140,"ˈ":141,"ˌ":142,"ː":143,"ˮ":144,"̂":145,"̄":146,"̅":147,"̆":148,"̌":149,"̣":150,"Π":151,"Σ":152,"ά":153,"έ":154,"ή":155,"ί":156,"α":157,"β":158,"γ":159,"δ":160,"ε":161,"ζ":162,"η":163,"θ":164,"ι":165,"κ":166,"λ":167,"μ":168,"ν":169,"ο":170,"π":171,"ρ":172,"ς":173,"σ":174,"τ":175,"υ":176,"φ":177,"χ":178,"ω":179,"ό":180,"ύ":181,"ώ":182,"А":183,"Б":184,"В":185,"Г":186,"Д":187,"Е":188,"З":189,"И":190,"К":191,"Л":192,"М":193,"Н":194,"О":195,"П":196,"Р":197,"С":198,"Т":199,"У":200,"Ф":201,"Х":202,"Ч":203,"Ш":204,"Э":205,"Я":206,"а":207,"б":208,"в":209,"г":210,"д":211,"е":212,"ж":213,"з":214,"и":215,"й":216,"к":217,"л":218,"м":219,"н":220,"о":221,"п":222,"р":223,"с":224,"т":225,"у":226,"ф":227,"х":228,"ц":229,"ч":230,"ш":231,"щ":232,"ъ":233,"ы":234,"ь":235,"э":236,"ю":237,"я":238,"ё":239,"ү":240,"ו":241,"מ":242,"ן":243,"ס":244,"ע":245,"פ":246,"ר":247,"ש":248,"،":249,"؟":250,"ء":251,"آ":252,"أ":253,"ؤ":254,"إ":255,"ئ":256,"ا":257,"ب":258,"ة":259,"ت":260,"ث":261,"ج":262,"ح":263,"خ":264,"د":265,"ذ":266,"ر":267,"ز":268,"س":269,"ش":270,"ص":271,"ض":272,"ط":273,"ظ":274,"ع":275,"غ":276,"ـ":277,"ف":278,"ق":279,"ك":280,"ل":281,"م":282,"ن":283,"ه":284,"و":285,"ى":286,"ي":287,"ً":288,"َ":289,"ُ":290,"ِ":291,"ّ":292,"ْ":293,"ٓ":294,"ٹ":295,"پ":296,"چ":297,"ڑ":298,"ک":299,"گ":300,"ھ":301,"ہ":302,"ی":303,"ބ":304,"ކ":305,"ދ":306,"ލ":307,"ޝ":308,"ަ":309,"ީ":310,"ު":311,"ް":312,"ँ":313,"ं":314,"ः":315,"अ":316,"आ":317,"इ":318,"ई":319,"उ":320,"ए":321,"ऐ":322,"ऑ":323,"ओ":324,"औ":325,"क":326,"ख":327,"ग":328,"घ":329,"ङ":330,"च":331,"छ":332,"ज":333,"झ":334,"ट":335,"ठ":336,"ड":337,"ढ":338,"ण":339,"त":340,"थ":341,"द":342,"ध":343,"न":344,"प":345,"फ":346,"ब":347,"भ":348,"म":349,"य":350,"र":351,"ऱ":352,"ल":353,"ळ":354,"व":355,"श":356,"ष":357,"स":358,"ह":359,"़":360,"ऽ":361,"ा":362,"ि":363,"ी":364,"ु":365,"ू":366,"ृ":367,"े":368,"ै":369,"ॉ":370,"ो":371,"ौ":372,"्":373,"ॐ":374,"॑":375,"॒":376,"क़":377,"ख़":378,"ज़":379,"ड़":380,"फ़":381,"ॠ":382,"।":383,"॥":384,"॰":385,"ং":386,"ই":387,"ক":388,"খ":389,"গ":390,"ঘ":391,"চ":392,"ছ":393,"জ":394,"ট":395,"ঠ":396,"ড":397,"ত":398,"থ":399,"দ":400,"ন":401,"প":402,"ব":403,"ম":404,"য":405,"র":406,"ল":407,"স":408,"া":409,"ি":410,"ী":411,"ু":412,"ে":413,"ো":414,"্":415,"ড়":416,"য়":417,"০":418,"১":419,"৫":420,"৭":421,"ਂ":422,"ਆ":423,"ਏ":424,"ਕ":425,"ਖ":426,"ਗ":427,"ਚ":428,"ਛ":429,"ਜ":430,"ਝ":431,"ਟ":432,"ਢ":433,"ਣ":434,"ਤ":435,"ਦ":436,"ਧ":437,"ਨ":438,"ਪ":439,"ਬ":440,"ਭ":441,"ਮ":442,"ਰ":443,"ਲ":444,"ਵ":445,"ਸ":446,"ਹ":447,"ਾ":448,"ਿ":449,"ੀ":450,"ੁ":451,"ੂ":452,"ੇ":453,"ੋ":454,"ੌ":455,"ੰ":456,"ੱ":457,"அ":458,"உ":459,"ஊ":460,"க":461,"ங":462,"ச":463,"ட":464,"த":465,"ந":466,"ன":467,"ப":468,"ம":469,"ய":470,"ர":471,"ற":472,"ல":473,"ள":474,"வ":475,"ா":476,"ி":477,"ு":478,"ெ":479,"ே":480,"ை":481,"்":482,"ం":483,"ఊ":484,"క":485,"ట":486,"డ":487,"త":488,"ద":489,"న":490,"మ":491,"ర":492,"ల":493,"వ":494,"ా":495,"ి":496,"ీ":497,"ు":498,"ె":499,"ొ":500,"్":501,"ಂ":502,"ಅ":503,"ಇ":504,"ಈ":505,"ಎ":506,"ಒ":507,"ಕ":508,"ಗ":509,"ಚ":510,"ಟ":511,"ಡ":512,"ಣ":513,"ತ":514,"ದ":515,"ನ":516,"ಪ":517,"ಬ":518,"ಭ":519,"ಮ":520,"ಯ":521,"ರ":522,"ಲ":523,"ಳ":524,"ವ":525,"ಶ":526,"ಷ":527,"ಸ":528,"ಹ":529,"ಾ":530,"ಿ":531,"ೀ":532,"ು":533,"ೂ":534,"ೆ":535,"ೇ":536,"ೊ":537,"ೋ":538,"ೌ":539,"್":540,"ം":541,"ഃ":542,"അ":543,"ആ":544,"ഇ":545,"ഈ":546,"ഉ":547,"ഊ":548,"ഋ":549,"ഌ":550,"എ":551,"ഏ":552,"ഐ":553,"ഒ":554,"ഓ":555,"ഔ":556,"ക":557,"ഖ":558,"ഗ":559,"ഘ":560,"ങ":561,"ച":562,"ഛ":563,"ജ":564,"ഝ":565,"ഞ":566,"ട":567,"ഠ":568,"ഡ":569,"ഢ":570,"ണ":571,"ത":572,"ഥ":573,"ദ":574,"ധ":575,"ന":576,"ഩ":577,"പ":578,"ഫ":579,"ബ":580,"ഭ":581,"മ":582,"യ":583,"ര":584,"റ":585,"ല":586,"ള":587,"ഴ":588,"വ":589,"ശ":590,"ഷ":591,"സ":592,"ഹ":593,"ഽ":594,"ാ":595,"ി":596,"ീ":597,"ു":598,"ൂ":599,"ൃ":600,"ൄ":601,"െ":602,"േ":603,"ൈ":604,"ൊ":605,"ോ":606,"ൌ":607,"്":608,"ൎ":609,"ൗ":610,"ൠ":611,"ൡ":612,"൦":613,"൧":614,"൨":615,"൩":616,"൪":617,"൫":618,"൬":619,"൭":620,"൮":621,"൯":622,"൰":623,"൹":624,"ൺ":625,"ൻ":626,"ർ":627,"ൽ":628,"ൾ":629,"ൿ":630,"ක":631,"ග":632,"ම":633,"ල":634,"්":635,"ු":636,"ก":637,"ข":638,"ค":639,"ง":640,"จ":641,"ช":642,"ซ":643,"ด":644,"ต":645,"ถ":646,"ท":647,"น":648,"บ":649,"ป":650,"ผ":651,"พ":652,"ฟ":653,"ภ":654,"ม":655,"ย":656,"ร":657,"ล":658,"ว":659,"ส":660,"ห":661,"อ":662,"ะ":663,"ั":664,"า":665,"ำ":666,"ิ":667,"ี":668,"ึ":669,"ื":670,"ุ":671,"ู":672,"เ":673,"แ":674,"ใ":675,"็":676,"่":677,"้":678,"ນ":679,"ສ":680,"ແ":681,"ᑎ":682,"ᒪ":683,"ᗩ":684,"ᗪ":685,"ᗰ":686,"ᘔ":687,"ន":688,"ស":689,"ែ":690,"ᵻ":691,"ḥ":692,"ṃ":693,"ṇ":694,"ṛ":695,"ṭ":696,"ễ":697,"ứ":698,"ἄ":699,"Ἀ":700,"ἔ":701,"ἣ":702,"ὐ":703,"ῖ":704,"ῦ":705,"​":706,"‌":707,"‍":708,"‎":709,"‏":710,"‑":711,"–":712,"—":713,"‘":714,"’":715,"“":716,"”":717,"†":718,"‡":719,"•":720,"…":721,"‪":722,"‬":723,"′":724,"″":725,"‼":726,"⁣":727,"⁦":728,"⁩":729,"⁴":730,"⁵":731,"⁶":732,"⁷":733,"₂":734,"₃":735,"₄":736,"₤":737,"₨":738,"€":739,"₹":740,"ℎ":741,"ℳ":742,"⅃":743,"⅓":744,"Ⅲ":745,"Ⅳ":746,"Ⅴ":747,"Ⅵ":748,"→":749,"↹":750,"↽":751,"⇀":752,"∂":753,"∈":754,"−":755,"∗":756,"∙":757,"√":758,"∝":759,"∫":760,"∴":761,"≈":762,"≤":763,"⊆":764,"▅":765,"■":766,"▪":767,"▷":768,"►":769,"●":770,"☀":771,"☃":772,"☔":773,"☮":774,"☺":775,"♀":776,"♂":777,"♛":778,"♡":779,"♥":780,"♾":781,"⚠":782,"⚡":783,"✆":784,"✈":785,"✌":786,"✤":787,"✨":788,"✶":789,"❄":790,"❣":791,"❤":792,"⟶":793,"⤵":794,"⭐":795,"。":796,"い":797,"が":798,"こ":799,"す":800,"ち":801,"で":802,"な":803,"に":804,"の":805,"も":806,"ら":807,"る":808,"ア":809,"ィ":810,"オ":811,"カ":812,"ク":813,"シ":814,"ソ":815,"チ":816,"ツ":817,"デ":818,"ピ":819,"プ":820,"マ":821,"ミ":822,"ュ":823,"ラ":824,"リ":825,"ン":826,"・":827,"ー":828,"䴯":829,"一":830,"三":831,"上":832,"不":833,"个":834,"中":835,"为":836,"九":837,"书":838,"了":839,"事":840,"亚":841,"人":842,"亿":843,"仆":844,"令":845,"们":846,"会":847,"住":848,"余":849,"作":850,"你":851,"係":852,"儋":853,"党":854,"入":855,"全":856,"八":857,"六":858,"共":859,"其":860,"内":861,"再":862,"出":863,"制":864,"刷":865,"力":866,"北":867,"千":868,"原":869,"又":870,"口":871,"另":872,"台":873,"号":874,"叹":875,"合":876,"吨":877,"吾":878,"员":879,"呢":880,"嗎":881,"国":882,"在":883,"壁":884,"多":885,"套":886,"委":887,"宅":888,"安":889,"寫":890,"寺":891,"導":892,"岁":893,"川":894,"州":895,"市":896,"帐":897,"平":898,"年":899,"张":900,"录":901,"形":902,"徽":903,"惊":904,"想":905,"感":906,"我":907,"打":908,"撃":909,"数":910,"新":911,"方":912,"日":913,"明":914,"是":915,"曲":916,"月":917,"有":918,"本":919,"条":920,"来":921,"某":922,"查":923,"格":924,"検":925,"業":926,"次":927,"止":928,"死":929,"民":930,"沒":931,"海":932,"滅":933,"滝":934,"激":935,"狂":936,"现":937,"理":938,"琦":939,"的":940,"睡":941,"瞌":942,"砖":943,"穷":944,"置":945,"联":946,"获":947,"落":948,"虎":949,"装":950,"見":951,"覺":952,"观":953,"討":954,"詩":955,"誰":956,"记":957,"象":958,"豪":959,"贫":960,"资":961,"起":962,"路":963,"车":964,"辈":965,"退":966,"連":967,"道":968,"還":969,"都":970,"醍":971,"醐":972,"量":973,"金":974,"长":975,"關":976,"限":977,"隱":978,"面":979,"風":980,"马":981,"黄":982,"龍":983,"ꀉ":984,"ꁌ":985,"ꃅ":986,"ꅋ":987,"ꐧ":988,"ꓭ":989,"":990,"":991,"﴾":992,"﴿":993,"️":994,"！":995,"（":996,"）":997,"，":998,"？":999,"￻":1000,"𝐀":1001,"𝐈":1002,"𝐊":1003,"𝐋":1004,"𝐍":1005,"𝐎":1006,"𝐏":1007,"𝐕":1008,"𝐽":1009,"𝑎":1010,"𝑒":1011,"𝑔":1012,"𝑖":1013,"𝑘":1014,"𝑙":1015,"𝑛":1016,"𝑜":1017,"𝑟":1018,"𝑠":1019,"𝑡":1020,"𝑢":1021,"𝑣":1022,"𝑤":1023,"𝒞":1024,"𝒶":1025,"𝒽":1026,"𝒾":1027,"𝓀":1028,"𝓁":1029,"𝓂":1030,"𝓈":1031,"𝓌":1032,"𝗞":1033,"𝗡":1034,"𝗮":1035,"𝗵":1036,"𝗶":1037,"𝗿":1038,"𝘁":1039,"𝘃":1040,"🇦":1041,"🇨":1042,"🇪":1043,"🇮":1044,"🇱":1045,"🇳":1046,"🇴":1047,"🇵":1048,"🇷":1049,"🇸":1050,"🇹":1051,"🇺":1052,"🌅":1053,"🌈":1054,"🌉":1055,"🌊":1056,"🌋":1057,"🌍":1058,"🌏":1059,"🌙":1060,"🌞":1061,"🌟":1062,"🌡":1063,"🌧":1064,"🌨":1065,"🌩":1066,"🌪":1067,"🌱":1068,"🌳":1069,"🌴":1070,"🌵":1071,"🌷":1072,"🌸":1073,"🌹":1074,"🌺":1075,"🌿":1076,"🍚":1077,"🍫":1078,"🍶":1079,"🍾":1080,"🎁":1081,"🎂":1082,"🎄":1083,"🎅":1084,"🎉":1085,"🎞":1086,"🎡":1087,"🎥":1088,"🎨":1089,"🎬":1090,"🎵":1091,"🎶":1092,"🏃":1093,"🏅":1094,"🏆":1095,"🏈":1096,"🏊":1097,"🏔":1098,"🏖":1099,"🏝":1100,"🏻":1101,"🏼":1102,"🏽":1103,"🏾":1104,"🐀":1105,"🐅":1106,"🐆":1107,"🐊":1108,"🐍":1109,"🐏":1110,"🐒":1111,"🐔":1112,"🐕":1113,"🐘":1114,"🐛":1115,"🐝":1116,"🐞":1117,"🐟":1118,"🐠":1119,"🐡":1120,"🐨":1121,"🐬":1122,"🐯":1123,"🐱":1124,"🐳":1125,"🐶":1126,"🐸":1127,"🐻":1128,"🐼":1129,"🐾":1130,"👀":1131,"👇":1132,"👉":1133,"👋":1134,"👌":1135,"👍":1136,"👏":1137,"👑":1138,"👜":1139,"👩":1140,"👫":1141,"👯":1142,"👶":1143,"👹":1144,"👺":1145,"👽":1146,"💀":1147,"💁":1148,"💃":1149,"💄":1150,"💆":1151,"💋":1152,"💎":1153,"💐":1154,"💔":1155,"💕":1156,"💖":1157,"💗":1158,"💙":1159,"💚":1160,"💛":1161,"💜":1162,"💞":1163,"💟":1164,"💪":1165,"💫":1166,"💯":1167,"💰":1168,"📈":1169,"📖":1170,"📣":1171,"📷":1172,"📸":1173,"📹":1174,"📽":1175,"🔊":1176,"🔞":1177,"🔥":1178,"🔮":1179,"🕶":1180,"🕷":1181,"🖤":1182,"😁":1183,"😂":1184,"😃":1185,"😄":1186,"😅":1187,"😆":1188,"😇":1189,"😈":1190,"😉":1191,"😊":1192,"😋":1193,"😌":1194,"😍":1195,"😎":1196,"😏":1197,"😒":1198,"😘":1199,"😛":1200,"😜":1201,"😝":1202,"😞":1203,"😟":1204,"😢":1205,"😣":1206,"😥":1207,"😩":1208,"😪":1209,"😫":1210,"😭":1211,"😲":1212,"😳":1213,"😻":1214,"🙂":1215,"🙏":1216,"🚌":1217,"🚢":1218,"🚣":1219,"🚦":1220,"🚨":1221,"🚴":1222,"🚶":1223,"🤍":1224,"🤎":1225,"🤓":1226,"🤔":1227,"🤗":1228,"🤞":1229,"🤣":1230,"🤦":1231,"🤩":1232,"🤪":1233,"🤮":1234,"🤯":1235,"🤲":1236,"🤷":1237,"🥀":1238,"🥁":1239,"🥂":1240,"🥋":1241,"🥰":1242,"🥲":1243,"🥳":1244,"🥶":1245,"🥺":1246,"🦀":1247,"🦁":1248,"🦄":1249,"🦋":1250,"🦎":1251,"🦜":1252,"🦠":1253,"🦢":1254,"🦸":1255,"🧗":1256,"🧘":1257,"🧙":1258,"🧚":1259,"🧜":1260,"🧡":1261,"🧥":1262,"🧿":1263,"##ന":1264,"##്":1265,"##ത":1266,"##ു":1267,"##ശ":1268,"##ാ":1269,"##സ":1270,"##ര":1271,"##വ":1272,"##ം":1273,"##ി":1274,"##ഘ":1275,"##ോ":1276,"##ഷ":1277,"##ങ":1278,"##ള":1279,"##ട":1280,"##െ":1281,"##യ":1282,"##ല":1283,"##ണ":1284,"##ക":1285,"##മ":1286,"##പ":1287,"##ഴ":1288,"##റ":1289,"##ഗ":1290,"##ഹ":1291,"##ധ":1292,"##ൃ":1293,"##ൂ":1294,"##ൾ":1295,"##ബ":1296,"##‌":1297,"##േ":1298,"##ീ":1299,"##‍":1300,"##ഫ":1301,"##ൻ":1302,"##ഥ":1303,"##ർ":1304,"##ഡ":1305,"##ദ":1306,"##ൊ":1307,"##ൽ":1308,"##ച":1309,"##ഖ":1310,"##ഞ":1311,"##ഭ":1312,"##ജ":1313,"##ഢ":1314,"##ൗ":1315,"##ൈ":1316,"##ഃ":1317,"##ഠ":1318,"##ഈ":1319,"##ൺ":1320,"##2":1321,"##8":1322,"##1":1323,"##ൿ":1324,"##н":1325,"##т":1326,"##е":1327,"##р":1328,"##а":1329,"##ц":1330,"##и":1331,"##о":1332,"##л":1333,"##ь":1334,"##ы":1335,"##х":1336,"##ഛ":1337,"##അ":1338,"##ु":1339,"##छ":1340,"##ो":1341,"##च":1342,"##त":1343,"##ा":1344,"##ഇ":1345,"##м":1346,"##എ":1347,"##я":1348,"##ൌ":1349,"##ু":1350,"##স":1351,"##্":1352,"##থ":1353,"##9":1354,"##ആ":1355,"##ഒ":1356,"##द":1357,"##0":1358,"##ഐ":1359,"##ഉ":1360,"##г":1361,"##ن":1362,"##ه":1363,"##ا":1364,"##4":1365,"##5":1366,"##ഊ":1367,"##े":1368,"##ं":1369,"##ि":1370,"##ब":1371,"##र":1372,"##ी":1373,"##्":1374,"##थ":1375,"##ै":1376,"##न":1377,"##ङ":1378,"##ग":1379,"##स":1380,"##ष":1381,"##ट":1382,"##व":1383,"##य":1384,"##ू":1385,"##ँ":1386,"##6":1387,"##ौ":1388,"##फ":1389,"##म":1390,"##3":1391,"##у":1392,"##7":1393,"##ए":1394,"##п":1395,"##к":1396,"##ज":1397,"##़":1398,"##:":1399,"##ഏ":1400,"##з":1401,"##в":1402,"##-":1403,"##ल":1404,"##ृ":1405,"##ж":1406,"##й":1407,"##,":1408,"##д":1409,"##с":1410,"##া":1411,"##ে":1412,"##ഔ":1413,"##ю":1414,"##ह":1415,"##ഓ":1416,"##ل":1417,"##ش":1418,"##ر":1419,"##ق":1420,"##ة":1421,"##ی":1422,"##ت":1423,"##ч":1424,"##ى":1425,"##ഝ":1426,"##ഌ":1427,"##प":1428,"##ط":1429,"##ण":1430,"##ड़":1431,"##ख":1432,"##ţ":1433,"##ಡ":1434,"##ಿ":1435,"##ठ":1436,"##\"":1437,"##ड":1438,"##'":1439,"##غ":1440,"##ي":1441,"##ب":1442,"##ُ":1443,"##و":1444,"##َ":1445,"##ः":1446,"##τ":1447,"##α":1448,"##υ":1449,"##ρ":1450,"##ο":1451,"##ς":1452,"##σ":1453,"##ι":1454,"##خ":1455,"##ف":1456,"##̌":1457,"##س":1458,"##م":1459,"##б":1460,"##ъ":1461,"##ё":1462,"##ф":1463,"##ख़":1464,"##क":1465,"##ൄ":1466,"##‘":1467,"##⁣":1468,"##’":1469,"##​":1470,"##}":1471,"##=":1472,"##ੁ":1473,"##ੰ":1474,"##ਦ":1475,"##ੇ":1476,"##ك":1477,"##ْ":1478,"##ع":1479,"##ِ":1480,"##খ":1481,"##ഋ":1482,"##ʝ":1483,"##@":1484,"##ೀ":1485,"##ε":1486,"##φ":1487,"##λ":1488,"##ή":1489,"##ü":1490,"##ॉ":1491,"##ഽ":1492,"##श":1493,"##भ":1494,"##ج":1495,"##ó":1496,"##𝒶":1497,"##𝓂":1498,"##𝓁":1499,"##θ":1500,"##η":1501,"##κ":1502,"##ν":1503,"##ː":1504,"##ə":1505,"##;":1506,"##د":1507,"##า":1508,"##ง":1509,"##เ":1510,"##ก":1511,"##ใ":1512,"##น":1513,"##ผ":1514,"##ู":1515,"##้":1516,"##ช":1517,"##ย":1518,"##ّ":1519,"##ੋ":1520,"##ਤ":1521,"##ح":1522,"##多":1523,"##に":1524,"##見":1525,"##る":1526,"##事":1527,"##が":1528,"##出":1529,"##来":1530,"##な":1531,"##い":1532,"##激":1533,"##ア":1534,"##ツ":1535,"##シ":1536,"##ー":1537,"##ン":1538,"##こ":1539,"##ち":1540,"##ら":1541,"##で":1542,"##す":1543,"##ุ":1544,"##ด":1545,"##ำ":1546,"##̆":1547,"##ک":1548,"##ছ":1549,"##র":1550,"##ā":1551,"##ī":1552,"##^":1553,"##‏":1554,"##൦":1555,"##/":1556,"##झ":1557,"##ส":1558,"##ೋ":1559,"##ಲ":1560,"##ಸ":1561,"##ರ":1562,"##ು":1563,"##ਹ":1564,"##ੀ":1565,"##ವ":1566,"##ಗ":1567,"##ೆ":1568,"##海":1569,"##道":1570,"##州":1571,"##市":1572,"##原":1573,"##长":1574,"##ய":1575,"##த":1576,"##ு":1577,"##ई":1578,"##گ":1579,"##ά":1580,"##μ":1581,"##_":1582,"##ш":1583,"##{":1584,"###":1585,"##+":1586,"##`":1587,"##ढ":1588,"##カ":1589,"##リ":1590,"##ज़":1591,"##*":1592,"##ੌ":1593,"##ਲ":1594,"##э":1595,"##ள":1596,"##ர":1597,"##ங":1598,"##்":1599,"##க":1600,"##ı":1601,"##𝑢":1602,"##𝑠":1603,"##𝑡":1604,"##щ":1605,"##>":1606,"##ਿ":1607,"##ੱ":1608,"##ਚ":1609,"##–":1610,"##आ":1611,"##ध":1612,"##å":1613,"##ë":1614,"##̅":1615,"##త":1616,"##్":1617,"##ు":1618,"##క":1619,"##ా":1620,"##డ":1621,"##ð":1622,"##إ":1623,"##\\":1624,"##∙":1625,"##ൡ":1626,"##॒":1627,"##ꁌ":1628,"##ꅋ":1629,"##ꃅ":1630,"##ೊ":1631,"##ೂ":1632,"##ড":1633,"##ি":1634,"##ক":1635,"##য":1636,"##ল":1637,"##ὐ":1638,"##έ":1639,"##ื":1640,"##อ":1641,"##ฟ":1642,"##月":1643,"##の":1644,"##狂":1645,"##詩":1646,"##曲":1647,"##×":1648,"##ہ":1649,"##ί":1650,"##⁦":1651,"##<":1652,"##𝑜":1653,"##𝑣":1654,"##𝑒":1655,"##ύ":1656,"##ö":1657,"##ো":1658,"##ত":1659,"##~":1660,"##?":1661,"##ೌ":1662,"##ಂ":1663,"##್":1664,"##Б":1665,"##К":1666,"##𝑖":1667,"##𝑟":1668,"##𝑙":1669,"##ி":1670,"##ற":1671,"##ம":1672,"##ை":1673,"##ಳ":1674,"##ತ":1675,"##%":1676,"##δ":1677,"##“":1678,"##ಾ":1679,"##ಕ":1680,"##ದ":1681,"##ನ":1682,"##̄":1683,"##ಯ":1684,"##ೇ":1685,"##]":1686,"##ص":1687,"##!":1688,"##₹":1689,"##أ":1690,"##इ":1691,"##†":1692,"##ˮ":1693,"##🤎":1694,"##ʼ":1695,"##ম":1696,"##ட":1697,"##ப":1698,"##ல":1699,"##ᗩ":1700,"##ᒪ":1701,"##ئ":1702,"##|":1703,"##ṃ":1704,"##พ":1705,"##ล":1706,"##ต":1707,"##ิ":1708,"##จ":1709,"##ว":1710,"##ม":1711,"##क़":1712,"##ؤ":1713,"##अ":1714,"##ˈ":1715,"##ʃ":1716,"##ন":1717,"##ສ":1718,"##ນ":1719,"##ె":1720,"##ల":1721,"##ൎ":1722,"##ğ":1723,"##வ":1724,"##・":1725,"##൪":1726,"##൧":1727,"##ঠ":1728,"##𝐕":1729,"##𝐀":1730,"##𝐍":1731,"##𝐊":1732,"##ً":1733,"##ਰ":1734,"##ꐧ":1735,"##ث":1736,"##ெ":1737,"##ன":1738,"##ý":1739,"##ώ":1740,"##γ":1741,"##寫":1742,"##作":1743,"##業":1744,"##打":1745,"##瞌":1746,"##睡":1747,"##還":1748,"##沒":1749,"##關":1750,"##係":1751,"##ಮ":1752,"##ಶ":1753,"##ळ":1754,"##ਾ":1755,"##プ":1756,"##ソ":1757,"##デ":1758,"##ィ":1759,"##൨":1760,"##ʻ":1761,"##൬":1762,"##ই":1763,"##ذ":1764,"##ä":1765,"##ş":1766,"##ă":1767,"##𝐋":1768,"##𝐎":1769,"##॑":1770,"##ਭ":1771,"##&":1772,"##$":1773,"##亚":1774,"##委":1775,"##书":1776,"##记":1777,"##ড়":1778,"##য়":1779,"##ಟ":1780,"##[":1781,"##€":1782,"##£":1783,"##ਏ":1784,"##π":1785,"##²":1786,"##ᘔ":1787,"##ᗰ":1788,"##ᑎ":1789,"##ओ":1790,"##ℎ":1791,"##ز":1792,"##Д":1793,"##Е":1794,"##С":1795,"##А":1796,"##వ":1797,"##ి":1798,"##口":1799,"##张":1800,"##琦":1801,"##ऽ":1802,"##一":1803,"##次":1804,"##刷":1805,"##新":1806,"##了":1807,"##录":1808,"##ć":1809,"##ం":1810,"##ట":1811,"##吾":1812,"##辈":1813,"##叹":1814,"##为":1815,"##观":1816,"##止":1817,"##М":1818,"##穷":1819,"##再":1820,"##限":1821,"##制":1822,"##我":1823,"##们":1824,"##的":1825,"##想":1826,"##象":1827,"##力":1828,"##ಚ":1829,"##็":1830,"##þ":1831,"##ھ":1832,"##ٹ":1833,"##ா":1834,"##ச":1835,"##ค":1836,"##ร":1837,"##่":1838,"##ป":1839,"##บ":1840,"##ะ":1841,"##ห":1842,"##ี":1843,"##ึ":1844,"##…":1845,"##फ़":1846,"##醐":1847,"##寺":1848,"##ό":1849,"##ே":1850,"##ṛ":1851,"##ـ":1852,"##ੂ":1853,"##О":1854,"##Л":1855,"##У":1856,"##Ш":1857,"##Н":1858,"##ظ":1859,"##ಭ":1860,"##̣":1861,"##ަ":1862,"##ކ":1863,"##ް":1864,"##ޝ":1865,"##ދ":1866,"##ީ":1867,"##ބ":1868,"##ު":1869,"##ొ":1870,"##ర":1871,"##న":1872,"##घ":1873,"##合":1874,"##国":1875,"##安":1876,"##全":1877,"##理":1878,"##会":1879,"##ʒ":1880,"##ṭ":1881,"##൩":1882,"##ڑ":1883,"##)":1884,"##𝗮":1885,"##𝗶":1886,"##𝗿":1887,"##é":1888,"##ऱ":1889,"##ῦ":1890,"##川":1891,"##本":1892,"##格":1893,"##導":1894,"##入":1895,"##検":1896,"##討":1897,"##𝒽":1898,"##𝓌":1899,"##ಷ":1900,"##ಣ":1901,"##ਆ":1902,"##ਸ":1903,"##ਨ":1904,"##𝓈":1905,"##查":1906,"##获":1907,"##帐":1908,"##面":1909,"##路":1910,"##不":1911,"##明":1912,"##资":1913,"##金":1914,"##共":1915,"##党":1916,"##员":1917,"##现":1918,"##年":1919,"##Ɔ":1920,"##И":1921,"##𝑎":1922,"##𝑘":1923,"##𝑛":1924,"##𝑔":1925,"##風":1926,"##车":1927,"##呢":1928,"##ซ":1929,"##แ":1930,"##•":1931,"##ਝ":1932,"##ਂ":1933,"##ং":1934,"##গ":1935,"##ী":1936,"##൭":1937,"##ω":1938,"##ǔ":1939,"##マ":1940,"##撃":1941,"##退":1942,"##オ":1943,"##ミ":1944,"##形":1945,"##装":1946,"##置":1947,"##چ":1948,"##ข":1949,"##ถ":1950,"##ר":1951,"##ס":1952,"##ү":1953,"##০":1954,"##”":1955,"##ั":1956,"##ภ":1957,"##ල":1958,"##්":1959,"##ɪ":1960,"##ɡ":1961,"##ʊ":1962,"##ែ":1963,"##ន":1964,"##(":1965,"##ɔ":1966,"##ï":1967,"##ਣ":1968,"##ٓ":1969,"##৫":1970,"##个":1971,"##人":1972,"##民":1973,"##仆":1974,"##落":1975,"##马":1976,"##ء":1977,"##জ":1978,"##ద":1979,"##ీ":1980,"##⁩":1981,"##ē":1982,"##䴯":1983,"##ض":1984,"##ਜ":1985,"##𝘃":1986,"##𝘁":1987,"##𝗵":1988,"##住":1989,"##宅":1990,"##内":1991,"##起":1992,"##黄":1993,"##砖":1994,"##条":1995,"##数":1996,"##量":1997,"##惊":1998,"##ਟ":1999,"##ු":2000,"##ම":2001,"##מ":2002,"##ע":2003,"##ו":2004,"##ן":2005,"##æ":2006,"##í":2007,"##В":2008,"##Т":2009,"##連":2010,"##在":2011,"##死":2012,"##壁":2013,"##虎":2014,"##上":2015,"##都":2016,"##有":2017,"##感":2018,"##覺":2019,"##是":2020,"##嗎":2021,"##ট":2022,"##₃":2023,"##ਖ":2024,"##徽":2025,"##ś":2026,"##χ":2027,"##ῖ":2028,"##六":2029,"##日":2030,"##ท":2031,"##ɒ":2032,"##も":2033,"##チ":2034,"##ュ":2035,"##ピ":2036,"##套":2037,"##千":2038,"##余":2039,"##平":2040,"##方":2041,"##豪":2042,"##ʌ":2043,"##ᵻ":2044,"##ɑ":2045,"##ന്":2046,"##ക്":2047,"##ത്":2048,"##ന്ന":2049,"##ക്ക":2050,"##്ട":2051,"##ത്ത":2052,"##ും":2053,"##ില":2054,"##്‍":2055,"##ിയ":2056,"##ുന്ന":2057,"##ങ്":2058,"##്പ":2059,"##ായ":2060,"##ച്":2061,"##ട്ട":2062,"##ങ്ങ":2063,"##്ര":2064,"##പ്പ":2065,"##ാണ":2066,"##്യ":2067,"##ിക്ക":2068,"##ണ്ട":2069,"##റ്":2070,"##ച്ച":2071,"##ിര":2072,"##ിൽ":2073,"##ുക":2074,"##സ്":2075,"##ടെ":2076,"##രു":2077,"##ാണ്":2078,"##്ല":2079,"##ിന്":2080,"##ാര":2081,"##ിച്ച":2082,"##റ്റ":2083,"##്ള":2084,"##ിന":2085,"##ള്ള":2086,"##റെ":2087,"##ിക":2088,"##ങ്ങള":2089,"##ാന":2090,"##ുന്നു":2091,"##ഞ്":2092,"##ത്ര":2093,"##ുമ":2094,"പ്ര":2095,"##െയ":2096,"##ുള്ള":2097,"##ായി":2098,"##ുടെ":2099,"##ാല":2100,"##ക്ക്":2101,"എന്ന":2102,"##ര്‍":2103,"##ില്‍":2104,"വി":2105,"##ടു":2106,"##വി":2107,"##ല്ല":2108,"##ിന്റെ":2109,"##ഞ്ഞ":2110,"ഒരു":2111,"സ്":2112,"##ന്‍":2113,"##ക്ഷ":2114,"##ിലെ":2115,"അവ":2116,"##ണ്ട്":2117,"##ാവ":2118,"കു":2119,"##ള്‍":2120,"##ായിര":2121,"നി":2122,"##ദ്":2123,"##ന്ന്":2124,"##ില്ല":2125,"##പ്പെ":2126,"##യും":2127,"##ാൻ":2128,"##രി":2129,"##തി":2130,"മാ":2131,"##ുവ":2132,"##്മ":2133,"##ങ്ക":2134,"##ാം":2135,"##ാമ":2136,"മു":2137,"##ാക്ക":2138,"##ങ്ങൾ":2139,"##ിക്കുന്ന":2140,"##ന്ത":2141,"##ിവ":2142,"പോ":2143,"##ിച്ചു":2144,"##വും":2145,"##ന്നു":2146,"##ുകള":2147,"##ിട്ട":2148,"പു":2149,"##മ്മ":2150,"അത":2151,"##മായ":2152,"##ായിരുന്നു":2153,"##ാത":2154,"##ിലും":2155,"ചെയ":2156,"##ിപ്പ":2157,"##ണ്":2158,"പറ":2159,"കൊ":2160,"##ത്യ":2161,"##ാർ":2162,"##േര":2163,"##ദേ":2164,"##ിട":2165,"##ത്തെ":2166,"##ണം":2167,"സം":2168,"##ത്തിൽ":2169,"##റിയ":2170,"കൂ":2171,"##ുട":2172,"##ത്ത്":2173,"##ച്ച്":2174,"##പ്പോ":2175,"##േഷ":2176,"##ാട":2177,"##ികള":2178,"##ാക":2179,"##തു":2180,"##ുന്നത്":2181,"##ിലേ":2182,"##യ്":2183,"##ടുത്ത":2184,"##കള":2185,"##ാന്‍":2186,"##മ്പ":2187,"##മായി":2188,"##ാസ":2189,"##തിയ":2190,"##റി":2191,"##ക്കു":2192,"##െന്ന":2193,"##ാള":2194,"നട":2195,"##ുണ്ട്":2196,"##ത്തിന്റെ":2197,"##ന്റെ":2198,"##മാണ്":2199,"##ന്നെ":2200,"വെ":2201,"##രം":2202,"##ാൽ":2203,"##ദ്യ":2204,"##റ്റ്":2205,"##നി":2206,"##ദ്ധ":2207,"##യുടെ":2208,"##ടി":2209,"##ല്‍":2210,"##ോഗ":2211,"##ാധ":2212,"##ർത്ത":2213,"##കര":2214,"പി":2215,"##ാഗ":2216,"##ുണ്ട":2217,"വര":2218,"##പ്പെട്ട":2219,"വീ":2220,"സ്വ":2221,"##ോട":2222,"##െങ്ക":2223,"##സ്ഥ":2224,"തുട":2225,"##തിന":2226,"##ാറ":2227,"##യിൽ":2228,"##ങ്ങള്‍":2229,"##ഞ്ഞു":2230,"##ംഗ":2231,"വേ":2232,"##ുമ്പ":2233,"സമ":2234,"##ാത്ര":2235,"##ന്ദ":2236,"കഴ":2237,"##ണ്ണ":2238,"##ാപ":2239,"##്വ":2240,"##ത്തിന":2241,"##ുകൾ":2242,"##നു":2243,"##ഞ്ച":2244,"##ാത്ത":2245,"##ാജ":2246,"കോ":2247,"ചെയ്യ":2248,"##ന്നും":2249,"##ാട്ട":2250,"ചെ":2251,"##ിമ":2252,"##നെ":2253,"##ുപ":2254,"##ഡ്":2255,"##ിത":2256,"കാണ":2257,"##യാണ്":2258,"##വിടെ":2259,"##നം":2260,"##പ്പെട":2261,"ജീ":2262,"##ൊരു":2263,"തിര":2264,"##ത്തിയ":2265,"##െന്ന്":2266,"##ഴ്":2267,"##ദേശ":2268,"##ക്കും":2269,"##ഷ്ട":2270,"കാര":2271,"##ാഹ":2272,"##ക്കെ":2273,"സ്ഥ":2274,"കണ്ട":2275,"##ോട്ട":2276,"##രുടെ":2277,"##ടിയ":2278,"##ന്ധ":2279,"##ഴു":2280,"##പ്ര":2281,"##ാതെ":2282,"##രെ":2283,"##ിരുന്നു":2284,"##്യം":2285,"##ിക്കുക":2286,"പറയ":2287,"ചെയ്":2288,"##സ്സ":2289,"##ിക്കുന്നു":2290,"##ികൾ":2291,"##ത്തി":2292,"പരി":2293,"##ിലേക്ക്":2294,"##ടുക്ക":2295,"##ത്തില":2296,"##ദേഹ":2297,"##സ്ത":2298,"മൂ":2299,"##ുമ്പോ":2300,"##ാശ":2301,"##യം":2302,"##ാര്‍":2303,"കുറ":2304,"പെ":2305,"മാത്ര":2306,"വള":2307,"##ങ്ങിയ":2308,"##യെ":2309,"##ിയുടെ":2310,"##ുന്നത":2311,"നീ":2312,"തന്നെ":2313,"##ദ്ദേഹ":2314,"വ്യ":2315,"##കൾ":2316,"##ത്തിന്":2317,"ഉപ":2318,"##ത്തില്‍":2319,"കേ":2320,"കാല":2321,"##സി":2322,"##സം":2323,"##ങ്ങളും":2324,"##ഷ്":2325,"തീ":2326,"##ാദ":2327,"വല":2328,"##ിനെ":2329,"##ലെ":2330,"നിര":2331,"##വിത":2332,"##ങ്ങളുടെ":2333,"##ോക":2334,"##ിന്ന്":2335,"മന":2336,"പൊ":2337,"##ോടെ":2338,"പല":2339,"##ോള":2340,"##ിച്ച്":2341,"##ലി":2342,"##െയും":2343,"##സ്റ്റ":2344,"##യിലെ":2345,"##ുറ":2346,"##െങ്കിലും":2347,"മറ്റ":2348,"##ുകൊ":2349,"അദ്ദേഹ":2350,"ഇത":2351,"##ാല്‍":2352,"##ഷ്യ":2353,"കട":2354,"രാജ":2355,"അയ":2356,"##ത്തിലെ":2357,"##ിക്കുന്നത്":2358,"##ൂടെ":2359,"ശ്ര":2360,"##ഭവ":2361,"ഉണ്ട":2362,"നോ":2363,"##വര":2364,"പൂ":2365,"നേ":2366,"##ക്കി":2367,"##്യമ":2368,"പര":2369,"19":2370,"##ർഷ":2371,"തെ":2372,"##ിക്കും":2373,"സു":2374,"##ങ്ങി":2375,"##ട്ടി":2376,"##ന്ത്യ":2377,"##ുമായി":2378,"##ാസ്":2379,"##ിയും":2380,"##00":2381,"മര":2382,"രണ്ട":2383,"##ങ്ങളിൽ":2384,"##കാര":2385,"##േണ്ട":2386,"##ിത്ര":2387,"##ത്തു":2388,"##ന്ത്ര":2389,"എന്ന്":2390,"##ൂപ":2391,"യാത്ര":2392,"ആയ":2393,"ഒര":2394,"എല്ല":2395,"##േഖ":2396,"പുറ":2397,"##ക്കുന്ന":2398,"##ട്ട്":2399,"പ്രവ":2400,"മല":2401,"##ബ്":2402,"##ീകര":2403,"##ുകള്‍":2404,"നില":2405,"ആദ്യ":2406,"##യില":2407,"##പ്പോൾ":2408,"##ണമ":2409,"ഏറ്റ":2410,"##പ്":2411,"ജന":2412,"തോ":2413,"##ധാന":2414,"കാ":2415,"##ീയ":2416,"##ിരുന്ന":2417,"വിശ":2418,"ഗ്ര":2419,"##ങ്ങനെ":2420,"ഇന്ത്യ":2421,"##യോഗ":2422,"സി":2423,"അത്":2424,"ഇട":2425,"##ോട്":2426,"സഹ":2427,"##ുത":2428,"##മാന":2429,"##യില്‍":2430,"##ിഞ്ഞ":2431,"ഇവ":2432,"##റ്റി":2433,"കൃ":2434,"##ക്ര":2435,"ചേ":2436,"പിന്ന":2437,"##പ്പോഴ":2438,"##ുകയും":2439,"##ലും":2440,"##ാനും":2441,"##തിര":2442,"ആര":2443,"##മി":2444,"കെ":2445,"എഴു":2446,"കഥ":2447,"നിന്ന്":2448,"##്യൂ":2449,"##ാൾ":2450,"ചില":2451,"##ജ്":2452,"##ങ്ങളെ":2453,"പേര":2454,"സാധ":2455,"##ൂർ":2456,"എന്ത":2457,"പക്ഷ":2458,"##യ്ക്ക":2459,"##ന്ദ്ര":2460,"##ിക്കാൻ":2461,"##മേ":2462,"##ശ്":2463,"##ിയെ":2464,"##മുള്ള":2465,"##ോദ":2466,"##ക്ത":2467,"##ായിരുന്ന":2468,"പേ":2469,"ദിവ":2470,"##ർക്ക":2471,"##ഴ്ച":2472,"##മു":2473,"##യ്ക്ക്":2474,"##പ്പെടുത്ത":2475,"##ൊക്കെ":2476,"##ൽക":2477,"##ഗ്ര":2478,"##ീര":2479,"##ഫ്":2480,"##ിയിൽ":2481,"അനു":2482,"##സ്ഥാന":2483,"വൈ":2484,"##ിച്ചത്":2485,"##െയാണ്":2486,"##ണി":2487,"##ട്":2488,"ജോ":2489,"ഏറ്റവും":2490,"രൂപ":2491,"##േഷം":2492,"##ന്റ":2493,"##ാക്കി":2494,"അധ":2495,"വെള്ള":2496,"കയ":2497,"നിർ":2498,"##പോ":2499,"നിറ":2500,"##ൂര":2501,"##േശ":2502,"വിള":2503,"ജീവിത":2504,"വഴ":2505,"##ല്ലാം":2506,"##ുപ്പ":2507,"പഠ":2508,"##തൽ":2509,"##ുദ്ധ":2510,"വലിയ":2511,"അന":2512,"നൽക":2513,"നിന്നും":2514,"##ിനു":2515,"സെ":2516,"കുട്ട":2517,"##ാഷ":2518,"ലോക":2519,"ജീവ":2520,"##ോധ":2521,"കൈ":2522,"പോക":2523,"ചിത്ര":2524,"##ന്മ":2525,"##ികള്‍":2526,"##ത്തേ":2527,"##ച്ചു":2528,"വന്ന":2529,"##ിലൂടെ":2530,"##െന്നും":2531,"##ലം":2532,"##ിട്ടുണ്ട്":2533,"വാ":2534,"ഉപയോഗ":2535,"ഇവിടെ":2536,"##കള്‍":2537,"എന്നിവ":2538,"ലഭ":2539,"പോയ":2540,"അറിയ":2541,"##വർ":2542,"എന്റെ":2543,"ഭാഗ":2544,"കൊണ്ട":2545,"##ീറ്റ":2546,"പറഞ്ഞു":2547,"അമ്മ":2548,"ആവ":2549,"##ത്സ":2550,"##ക്കാര":2551,"##വ്":2552,"##താണ്":2553,"##പ്പം":2554,"ക്":2555,"20":2556,"##ാനുള്ള":2557,"##ുകയ":2558,"##ീക്ഷ":2559,"##ണ്‍":2560,"##വേ":2561,"##ിന്‍":2562,"പറഞ്ഞ":2563,"ഒന്ന":2564,"##ര്‍ത്ത":2565,"വായ":2566,"പ്രധാന":2567,"##ഗ്":2568,"അപ":2569,"അവർ":2570,"##േരള":2571,"അവിടെ":2572,"തുടങ്ങിയ":2573,"നമ്മ":2574,"##ുര":2575,"കൂട്ട":2576,"##ശ്യ":2577,"##രണ":2578,"അഭ":2579,"##ക്കള":2580,"പിട":2581,"##തും":2582,"ഞാൻ":2583,"കൂടു":2584,"കേരള":2585,"തല":2586,"വേണ്ട":2587,"##കം":2588,"അദ്ദേഹം":2589,"ശര":2590,"മനു":2591,"അട":2592,"എന്നാൽ":2593,"മറ":2594,"ഇത്":2595,"##ോർ":2596,"മുന്ന":2597,"##ത്തിനു":2598,"##ുകളും":2599,"ക്ര":2600,"##ുമ്പോൾ":2601,"മനുഷ്യ":2602,"നിയ":2603,"കുട":2604,"ആക":2605,"##ാക്കിയ":2606,"നിന്ന":2607,"അമ":2608,"മനസ്സ":2609,"താ":2610,"കഴിഞ്ഞ":2611,"##ക്ട":2612,"ചു":2613,"ഭൂ":2614,"##ീസ്":2615,"വീട്ട":2616,"##ീന":2617,"ക്ഷ":2618,"വർഷ":2619,"കല":2620,"##ോമ":2621,"തന്റെ":2622,"##കൂ":2623,"##ന്യ":2624,"ചെയ്ത":2625,"##രോ":2626,"തൊ":2627,"##യോ":2628,"മെ":2629,"##ാണ്ട":2630,"##ീസ":2631,"ബന്ധ":2632,"##ികളുടെ":2633,"##യാള":2634,"ബ്ര":2635,"##ുകൊണ്ട":2636,"##സ്റ്റ്":2637,"ഉയ":2638,"ആശ":2639,"കിട്ട":2640,"##ാണു":2641,"മേ":2642,"##രും":2643,"കള":2644,"വരെ":2645,"##സ്‌":2646,"##പ്പ്":2647,"##പ്പോള്‍":2648,"##ഭാഗ":2649,"വയ":2650,"##വിട":2651,"ട്ര":2652,"##നും":2653,"സൂ":2654,"നല്ല":2655,"##ുകാര":2656,"##ീപ":2657,"ഞാന്‍":2658,"##ധി":2659,"##ാട്":2660,"##വുമ":2661,"കണ്ണ":2662,"ചെയ്തു":2663,"കണ്ടെ":2664,"ഉള്ള":2665,"##ീത":2666,"##ാമ്പ":2667,"##കൃ":2668,"##ൈന":2669,"##മെ":2670,"##ത്ഥ":2671,"##കാല":2672,"##ഞ്ഞ്":2673,"##ർന്ന":2674,"അവസ":2675,"ഉറ":2676,"പ്രത്യ":2677,"##ിലാണ്":2678,"##ാലും":2679,"##ാരം":2680,"##വേഷ":2681,"തോന്ന":2682,"ആണ്":2683,"##ര്‍ഷ":2684,"##ച്ഛ":2685,"നടത്ത":2686,"##ിറ":2687,"##ദ്ര":2688,"##വം":2689,"##ുകളിൽ":2690,"##കു":2691,"##ോഹ":2692,"കൊണ്ട്":2693,"കിട":2694,"##ാന്ത":2695,"##ിസ":2696,"##ുംബ":2697,"##തല":2698,"##ിലുള്ള":2699,"സ്റ്റ":2700,"##നായ":2701,"രാജ്യ":2702,"##ണക്ക":2703,"ഇരു":2704,"കാര്യ":2705,"മാത്രം":2706,"റോ":2707,"മുഖ":2708,"പോലെ":2709,"##ത്തര":2710,"##റു":2711,"സഹായ":2712,"ലക്ഷ":2713,"സൗ":2714,"##മാണ":2715,"##യുള്ള":2716,"കര":2717,"##ിച്ചിര":2718,"തന്ന":2719,"പ്രതി":2720,"അവരുടെ":2721,"##ോളം":2722,"##െന്നു":2723,"##മായിരുന്നു":2724,"പിന്നീ":2725,"##ജീ":2726,"##ഡിയ":2727,"നേര":2728,"തട":2729,"##െങ്കിൽ":2730,"കരു":2731,"##ജി":2732,"##ങ്ങന":2733,"ഓരോ":2734,"സഞ്ച":2735,"##ികളെ":2736,"##ൂഹ":2737,"##ോഷ":2738,"ഗു":2739,"ശേഷം":2740,"അധിക":2741,"##ളി":2742,"##കളും":2743,"##ാരണ":2744,"വളരെ":2745,"##ടുവ":2746,"##ാള്‍":2747,"##ാനം":2748,"പക്ഷേ":2749,"സംഘ":2750,"##ർശ":2751,"##വിധ":2752,"അടുത്ത":2753,"##നേ":2754,"##നിക്ക്":2755,"##ാഷ്ട":2756,"##ക്കം":2757,"##പ്പോഴും":2758,"സ്ത്ര":2759,"അതി":2760,"മാറ്റ":2761,"##ിയാണ്":2762,"##ാസ്ത്ര":2763,"##ിക്കാന്‍":2764,"കി":2765,"മഹ":2766,"##ാഷ്ട്ര":2767,"##ക്കാല":2768,"ഡി":2769,"##മല്ല":2770,"കഴിയ":2771,"അവള":2772,"##പ്പെടുന്ന":2773,"മഴ":2774,"നഗ":2775,"##ീല":2776,"##ന്റ്":2777,"##ിക്കാന":2778,"##ക്കിയ":2779,"ഇല്ല":2780,"##ികളും":2781,"##ർമ":2782,"ആള":2783,"എത്ത":2784,"##ാഭ":2785,"##േറ്റ":2786,"##ോയ":2787,"##േത്ര":2788,"##റിച്ച്":2789,"##ുകൊണ്ട്":2790,"##ോണ":2791,"##ൊപ്പം":2792,"##ർവ":2793,"##ാറ്റ":2794,"സംഭവ":2795,"വില":2796,"പ്രദേശ":2797,"201":2798,"##ട്ടു":2799,"സ്ഥല":2800,"##ിക്കുകയും":2801,"മി":2802,"##െല്ലാം":2803,"കൂട":2804,"##്‌":2805,"##ഡി":2806,"തേ":2807,"##ുമ്പോള്‍":2808,"നെ":2809,"##രക്ഷ":2810,"കാഴ്ച":2811,"##രിത്ര":2812,"##ബന്ധ":2813,"പ്രവർത്ത":2814,"##ത്മ":2815,"സാ":2816,"##കല":2817,"##ംബ":2818,"സാഹ":2819,"അല":2820,"കൃഷ":2821,"ഡോ":2822,"##ൂറ":2823,"##ക്രമ":2824,"സ്ത്രീ":2825,"പുതിയ":2826,"##പ്പെട്ടു":2827,"പങ്ക":2828,"##ുകളുടെ":2829,"രോഗ":2830,"##ര്യ":2831,"ചോ":2832,"##ങ്ങളില്‍":2833,"##േയും":2834,"മുതൽ":2835,"ഏത":2836,"അല്ല":2837,"ഇര":2838,"##വര്‍":2839,"പറയുന്നു":2840,"മണ":2841,"മുൻ":2842,"##്വാസ":2843,"##ാവ്":2844,"അതിന":2845,"പുസ്ത":2846,"##ബി":2847,"ഭക്ഷ":2848,"##േഖല":2849,"ദിവസ":2850,"##േക്ക":2851,"എല്ലാ":2852,"##ടുത്തു":2853,"പഴ":2854,"##ോപ":2855,"പ്രത്യേ":2856,"രണ്ടു":2857,"താമ":2858,"അനുഭവ":2859,"പ്രത":2860,"##ത്തും":2861,"##െടുക്ക":2862,"നാല":2863,"ഗ്രാമ":2864,"##െയുള്ള":2865,"##ിയിലെ":2866,"നാട്ട":2867,"##ത്തോടെ":2868,"ഇതിന":2869,"##ിതി":2870,"വിവ":2871,"കൂടി":2872,"##ളം":2873,"##േത":2874,"##മുണ്ട":2875,"തുടങ്ങി":2876,"എന്നു":2877,"##ിക്കു":2878,"ക്ല":2879,"സ്‌":2880,"വിദ്യ":2881,"സ്വന്ത":2882,"##ടുത്ത്":2883,"പിന്നീട്":2884,"പോല":2885,"അവര്‍":2886,"##ബ്ദ":2887,"##ിന്ത":2888,"ചെറിയ":2889,"##ല്‍ക":2890,"മലയാള":2891,"ബി":2892,"ശ്രമ":2893,"അങ്ങനെ":2894,"സമയ":2895,"ന്":2896,"ഇറ":2897,"##ടന":2898,"##പ്പെടുന്നു":2899,"വീണ്ട":2900,"##ില്ലാത്ത":2901,"പാ":2902,"##ാകും":2903,"##സ്വ":2904,"തിരിച്ച":2905,"ശ്രദ്ധ":2906,"##രമായ":2907,"##ക്കുള്ള":2908,"നടന്ന":2909,"##റും":2910,"കില":2911,"##ിനി":2912,"##ഗ്രഹ":2913,"##യ്യ":2914,"ഒഴ":2915,"##ൊന്നും":2916,"##ിയില്‍":2917,"ദിവസം":2918,"ചരിത്ര":2919,"അടി":2920,"തുറ":2921,"നാട":2922,"##േസ":2923,"##ിട്ട്":2924,"ഏക":2925,"സാമ":2926,"##ിയായ":2927,"##ുവര":2928,"##ുമാണ്":2929,"##രുമാന":2930,"##ൊന്ന":2931,"##കളുടെ":2932,"##ിനിമ":2933,"##ക്കുറ":2934,"പാല":2935,"##േയ":2936,"##െയ്":2937,"##ഖ്യ":2938,"അച്ഛ":2939,"നല്‍ക":2940,"പക":2941,"ചോദ":2942,"##ുന്നതിന":2943,"##നങ്ങൾ":2944,"എനിക്ക്":2945,"എന്നാണ്":2946,"നിന്നു":2947,"##ത്തരം":2948,"നായ":2949,"പോലും":2950,"വന്നു":2951,"നിര്‍":2952,"##ത്തിലുള്ള":2953,"##ുമായ":2954,"പ്രസി":2955,"##േവ":2956,"അറ":2957,"##ാരി":2958,"##ൂട്ട":2959,"കുടുംബ":2960,"കീ":2961,"##ൊണ്ട":2962,"എന്നും":2963,"##ാരുടെ":2964,"##യായി":2965,"കേന്ദ്ര":2966,"വിക":2967,"##ത്വ":2968,"##ർച്ച":2969,"പുര":2970,"വിഷ":2971,"മോ":2972,"##ുന":2973,"ക്ഷേത്ര":2974,"##ീതിയ":2975,"നഗര":2976,"##ക്കുന്നു":2977,"##ിക്":2978,"##ത്തിലും":2979,"##ർന്ന്":2980,"പ്രത്യേക":2981,"##ിക്കുന്നത":2982,"##ിക്കാം":2983,"പരിശ":2984,"ഏറെ":2985,"എന്നെ":2986,"##േരിക്ക":2987,"##നിന്ന്":2988,"##ുല":2989,"##കാശ":2990,"##ർന്നു":2991,"##ാബ":2992,"രാത്ര":2993,"##ിൻ":2994,"200":2995,"ഭാര":2996,"നിയമ":2997,"##തൃ":2998,"വീണ്ടും":2999,"##്യത":3000,"##ുകയാണ്":3001,"സ്ഥാപ":3002,"##ിഞ്ഞു":3003,"##ടക്ക":3004,"കമ്പ":3005,"കാരണം":3006,"ആന":3007,"പച്ച":3008,"##ിന്‍റെ":3009,"സൈ":3010,"നടത്തിയ":3011,"ചൂ":3012,"വിര":3013,"അവസാന":3014,"##ക്സ":3015,"മുഴ":3016,"ദേശ":3017,"അമേരിക്ക":3018,"##രുമ":3019,"താഴ":3020,"##ിലേക്കു":3021,"പിന്നെ":3022,"##തല്‍":3023,"കൂടിയ":3024,"പാർ":3025,"ഉൾ":3026,"##ങ്ങളാണ്":3027,"##ട്ടിയ":3028,"ലെ":3029,"വീട":3030,"അക":3031,"''":3032,"##രുവ":3033,"പ്ല":3034,"##രംഭ":3035,"##ൈവ":3036,"##ിത്ത":3037,"സിനിമ":3038,"കൂടുതൽ":3039,"എത്ര":3040,"രണ്ട്":3041,"നൂ":3042,"ഒറ്റ":3043,"##ീഷ":3044,"##വാ":3045,"പട്ട":3046,"##ീറ്റർ":3047,"##പ്പു":3048,"മുമ്പ":3049,"രാഷ്ട്ര":3050,"സമ്മ":3051,"പതി":3052,"##ണ്ഡ":3053,"##യായ":3054,"##ിപ്പിക്ക":3055,"താമസ":3056,"ഞാന":3057,"ഭാഷ":3058,"##ാണി":3059,"സഞ്ചാര":3060,"നമ്മുടെ":3061,"കാട്ട":3062,"വർ":3063,"##ല്ലോ":3064,"##ിരിക്കുന്നു":3065,"ജില്ല":3066,"ചെറ":3067,"അയാള":3068,"##ങ്ങൾക്ക്":3069,"ഇഷ്ട":3070,"അര":3071,"ആവശ്യ":3072,"മൂന്ന":3073,"മേഖല":3074,"അസ":3075,"##െങ്കില്‍":3076,"നിൽ":3077,"##കട":3078,"##ോ":3079,"##ദേശം":3080,"##വധി":3081,"മറ്റൊരു":3082,"##കാരം":3083,"##ിച്ചിട്ട":3084,"##ാറുണ്ട്":3085,"മനസ്സില":3086,"##പോലെ":3087,"##ിച്ചത":3088,"അയാൾ":3089,"##കളെ":3090,"പെട്ട":3091,"അംഗ":3092,"##സാര":3093,"മൃ":3094,"##െന്നാണ്":3095,"ഇതു":3096,"മറ്റു":3097,"പുസ്തക":3098,"##ണയ":3099,"വിജ":3100,"##ുമുള്ള":3101,"ഇന":3102,"ചുറ്റ":3103,"##ിരിക്കുന്ന":3104,"##ോവ":3105,"പറ്റ":3106,"അതിന്റെ":3107,"##മായും":3108,"കവിത":3109,"##ാവും":3110,"ബോ":3111,"ടെ":3112,"##നേഹ":3113,"ഫ്ര":3114,"##രിപ്പ":3115,"##ക്‌":3116,"വഴി":3117,"വര്‍ഷ":3118,"##വല":3119,"മത്സ":3120,"മീ":3121,"##േണ്ടി":3122,"ജല":3123,"##ധിക":3124,"##ന്തര":3125,"ലൈ":3126,"ഉട":3127,"##ങ്ങളിലും":3128,"എന്നാല്‍":3129,"എന":3130,"രക്ഷ":3131,"##ിച്ചിരുന്നു":3132,"##മോ":3133,"ദു":3134,"##ുകൂ":3135,"##ുള്ളത്":3136,"##ുകളെ":3137,"##കർ":3138,"സ്ഥിതി":3139,"##കളിൽ":3140,"ഇപ്പോൾ":3141,"അവൾ":3142,"സ്പ":3143,"##പെ":3144,"ഭരണ":3145,"ലോ":3146,"##രിച്ച്":3147,"യു":3148,"##ിക്കണം":3149,"##ുമ്പോഴ":3150,"സംസ്ഥാന":3151,"##പ്പി":3152,"##ിനും":3153,"തീരുമാന":3154,"##ശ്ച":3155,"എം":3156,"##െയ്യ":3157,"##മാക്ക":3158,"##ുന്നുണ്ട്":3159,"ചെയ്യുന്ന":3160,"##ചന":3161,"##ോട്ട്":3162,"##നിര":3163,"##ത്തിലാണ്":3164,"സ്വന്തം":3165,"##വണ":3166,"വരുന്ന":3167,"##മാക":3168,"##സ്യ":3169,"##ബർ":3170,"സന്ദ":3171,"വിധ":3172,"##ംഗ്":3173,"കോള":3174,"##ഹൃ":3175,"ഗവേഷ":3176,"ഇല":3177,"##ൽപ":3178,"നിരവധി":3179,"##ംഗ്ല":3180,"മാന":3181,"അന്ന":3182,"##ഭാവ":3183,"സാധാരണ":3184,"##ണിയ":3185,"##ൊക്ക":3186,"##ജീവ":3187,"##ുത്ത":3188,"ആത്മ":3189,"വ്യത്യ":3190,"പഞ്ച":3191,"##ഞ്ച്":3192,"##ഷ്ണ":3193,"##ചാര":3194,"##ജ്ഞ":3195,"കുഞ്ഞ":3196,"18":3197,"മണ്ണ":3198,"##തം":3199,"##യായിരുന്നു":3200,"##ട്ര":3201,"സങ്ക":3202,"വേണ്ടി":3203,"നേരി":3204,"##റിഞ്ഞ":3205,"##ാഥ":3206,"ക്യ":3207,"##ാവുന്ന":3208,"##ിക്കപ്പെട്ട":3209,"##ാവസ്ഥ":3210,"##ശേഷം":3211,"##ാസം":3212,"അന്ന്":3213,"##ായിരിക്കും":3214,"പ്രശ്":3215,"കെട്ട":3216,"##ര്‍ക്ക":3217,"എസ്":3218,"##ത്തിനും":3219,"##ത്തേക്ക്":3220,"യൂ":3221,"##ന്‍റെ":3222,"കാണാം":3223,"ലി":3224,"രീതിയ":3225,"വെള":3226,"##േന":3227,"മാസ":3228,"നോക്കി":3229,"പോയി":3230,"##ോൾ":3231,"നടക്ക":3232,"##യ്ക്കു":3233,"##മില്ല":3234,"ജോലി":3235,"എന്നീ":3236,"##മുണ്ട്":3237,"##േക്ഷ":3238,"ഒരിക്ക":3239,"ശരീര":3240,"##ങ്ങ്":3241,"ദ്വ":3242,"##ൂര്‍":3243,"സന്ത":3244,"മഞ്ഞ":3245,"……":3246,"##ക്കുറിച്ച്":3247,"കണക്ക":3248,"കിലോമ":3249,"ആരംഭ":3250,"കൂടെ":3251,"പട":3252,"##ോറ":3253,"തു":3254,"പാട":3255,"##ശേഷ":3256,"സംസാര":3257,"##റ്റാണ്ട":3258,"##ുകളില്‍":3259,"നഷ്ട":3260,"##ത്തിലേക്ക്":3261,"##ര്‍ന്ന":3262,"##്ട്ര":3263,"വിവര":3264,"##ാഴ്ച":3265,"മുഴുവ":3266,"##വുമായി":3267,"##ൊഴ":3268,"ആർ":3269,"ചിന്ത":3270,"##ലിയ":3271,"##ർണ":3272,"സമൂഹ":3273,"സംഗ":3274,"##ോസ":3275,"ഇന്ന":3276,"##ക്കൾ":3277,"മാർ":3278,"##ാണെന്ന്":3279,"സർക്ക":3280,"##ികച്ച":3281,"വൃ":3282,"##യിലും":3283,"##പു":3284,"##ുന്നതും":3285,"മുറ":3286,"##വെ":3287,"ചോദ്യ":3288,"##ജന":3289,"ആയിരുന്നു":3290,"നോക്ക":3291,"##ിക്കുകയാണ്":3292,"പാട്ട":3293,"##ുച":3294,"##ദ്ദ":3295,"##ർത്തിയ":3296,"പ്രായ":3297,"പ്രകൃ":3298,"അദ്ദേഹത്തിന്റെ":3299,"##ാതിര":3300,"ഓഫ്":3301,"മരണ":3302,"മാറ":3303,"##ത്തിന്‍":3304,"തര":3305,"##ക്കുറിച്ച":3306,"##ബ്ര":3307,"നദ":3308,"തെള":3309,"സമയം":3310,"വ്യക്ത":3311,"##ക്തി":3312,"##ട്ടെ":3313,"വികസ":3314,"പൊല":3315,"##ൊര":3316,"##സ്തു":3317,"ശാസ്ത്ര":3318,"ടി":3319,"വിവാഹ":3320,"ബുദ്ധ":3321,"ഇന്ത്യൻ":3322,"ഇങ്ങനെ":3323,"##ായ്":3324,"##നായി":3325,"വിന":3326,"ഒട്ട":3327,"ബെ":3328,"എഴുതിയ":3329,"##ിന്ദ":3330,"##ിത്യ":3331,"ഇന്ന്":3332,"ഒരുപ":3333,"എല്ലാം":3334,"കൃഷി":3335,"വാക്ക":3336,"##ങ്കിലും":3337,"വിപ":3338,"എല്ലാവ":3339,"ബാധ":3340,"##ലോ":3341,"ആണ":3342,"വേദ":3343,"ഭൂമ":3344,"##മാര":3345,"##പ്പുറ":3346,"കോട്ട":3347,"പ്രസിദ്ധ":3348,"ഹൈ":3349,"##ോര്‍":3350,"എഴുത":3351,"##ശ്ര":3352,"##ങ്ങുന്ന":3353,"പ്രസ":3354,"##േജ":3355,"##ിച്ചിട്ടുണ്ട്":3356,"ബ്രിട്ട":3357,"നമു":3358,"##ിച്ചിരുന്ന":3359,"##ങ്ങളില":3360,"ഉത്തര":3361,"പദ്ധ":3362,"##ത്തിന്‍റെ":3363,"##െടുത്ത":3364,"സോ":3365,"വിവിധ":3366,"ഇനി":3367,"##പ്പെടുന്നത്":3368,"##ങ്ങനെയ":3369,"##ർത്തി":3370,"##ടുപ്പ":3371,"കൊല്ല":3372,"സൂക്ഷ":3373,"##പി":3374,"രാഷ്ട്രീയ":3375,"അവരെ":3376,"തണ":3377,"മത":3378,"റെ":3379,"##ഭൂ":3380,"കേട്ട":3381,"മധ":3382,"ചൈന":3383,"ബാ":3384,"##ുണ്ടായിരുന്നു":3385,"മൊ":3386,"##ിക്കുമ":3387,"ഒന്നും":3388,"കാത്ത":3389,"##ധികം":3390,"പരിച":3391,"##ുമില്ല":3392,"10":3393,"##ാന്":3394,"തന്നെയാണ്":3395,"##ീഷ്":3396,"##ക്കൊ":3397,"##നിൽ":3398,"##േറ്റ്":3399,"##പ്പെടുത്തിയ":3400,"കണ്ടെത്ത":3401,"##ിമു":3402,"കാർ":3403,"പ്രശ":3404,"##്വസ":3405,"ശബ്ദ":3406,"##വിധാന":3407,"##ക്യ":3408,"മാത്രമല്ല":3409,"മക":3410,"കുറ്റ":3411,"അഞ്ച":3412,"തമ്മ":3413,"ആദ്യം":3414,"യുദ്ധ":3415,"##ീച്ച":3416,"##പാട":3417,"സമീപ":3418,"##ൻസ":3419,"##ശ്ശ":3420,"പതിന":3421,"പറയുന്നത്":3422,"അവളുടെ":3423,"##കൂള":3424,"##ികളിൽ":3425,"ഇത്തരം":3426,"##ൃഷ്ട":3427,"##ക്കിട":3428,"##തോടെ":3429,"ആഗ്രഹ":3430,"ബന്ധപ്പെട്ട":3431,"വിജയ":3432,"കടല":3433,"ജീവിതം":3434,"അത്ര":3435,"##നിന്നു":3436,"കയ്യ":3437,"##ീമ":3438,"##േസീ":3439,"##ിയായി":3440,"നിർമ്മ":3441,"ശത":3442,"##ിരി":3443,"##ിക്കേണ്ട":3444,"##രണം":3445,"##പര":3446,"ബഹ":3447,"വ്യാപ":3448,"##വ്വ":3449,"##യി":3450,"##തിനാൽ":3451,"മനോഹ":3452,"വരു":3453,"##വാദ":3454,"മാത്രമേ":3455,"15":3456,"എഴുത്ത":3457,"##നില":3458,"##തന്നെ":3459,"കുഞ്ഞു":3460,"##ായത്":3461,"##ങ്ങളിലെ":3462,"സത്യ":3463,"##ുദ":3464,"##ഗം":3465,"##മ്പര":3466,"##ുവന്ന":3467,"വിഭാഗ":3468,"##ുവരെ":3469,"മാറി":3470,"അവസ്ഥ":3471,"ജൂ":3472,"##ിയോ":3473,"##ഴ്‌":3474,"##ശാസ്ത്ര":3475,"##ാർത്ഥ":3476,"നിയന്ത്ര":3477,"കണ്ടെത്തിയ":3478,"##ന്മാര":3479,"ഹെ":3480,"##ൽക്ക":3481,"കോട":3482,"##ിരിക്കുന്നത്":3483,"##ുവാൻ":3484,"വർഷം":3485,"##ുകയായിരുന്നു":3486,"എന്നി":3487,"കോഴ":3488,"ആക്രമ":3489,"##ീർ":3490,"ഓര്‍":3491,"സമ്പ":3492,"പ്രിയ":3493,"##േഷൻ":3494,"##നിന്ന":3495,"##യിലേക്ക്":3496,"സംരക്ഷ":3497,"##ാനി":3498,"##ുന്നതാണ്":3499,"തീര":3500,"കരുത":3501,"തി":3502,"##ായിരുന്നില്ല":3503,"##ഭാഷ":3504,"കണ്ടു":3505,"##ളവ":3506,"റിപ്പ":3507,"ഉണ്ട്":3508,"##ാലി":3509,"മൃഗ":3510,"##ാപ്പ":3511,"വയസ്സ":3512,"##ങ്ങള്‍ക്ക്":3513,"കൃത്യ":3514,"##ത്തിലേ":3515,"വെള്ളം":3516,"##ഡിയോ":3517,"മൂന്നു":3518,"നൂറ്റാണ്ട":3519,"കിട്ടിയ":3520,"ശേഷ":3521,"##ർമ്മ":3522,"മികച്ച":3523,"ഉയര":3524,"##വരെ":3525,"##ിപ്പിച്ച":3526,"അവര":3527,"വായന":3528,"എത്തിയ":3529,"കൗ":3530,"##സമ":3531,"കീഴ":3532,"യുവ":3533,"കുള":3534,"##ിയ്":3535,"തൂ":3536,"##േറെ":3537,"##ുണ്ടായി":3538,"തുടങ്ങ":3539,"##ിക്കുന്നതിന":3540,"##ിക്ക്":3541,"##ൃത":3542,"##കര്‍":3543,"അവള്‍":3544,"##തിയുടെ":3545,"വൈക":3546,"##ണങ്ങൾ":3547,"അന്":3548,"##േന്ദ്ര":3549,"പേര്":3550,"നിറഞ്ഞ":3551,"അതിനു":3552,"ന്യൂ":3553,"പശ":3554,"ഡോക്ട":3555,"അർ":3556,"സംഗീത":3557,"മട":3558,"സന്തോഷ":3559,"ചല":3560,"ഇംഗ്ല":3561,"പ്രണയ":3562,"##സ്മ":3563,"നൽകിയ":3564,"ദൃ":3565,"##ത്തിലൂടെ":3566,"##നാണ്":3567,"ശി":3568,"##ൂര്യ":3569,"കൊടുക്ക":3570,"##ിക്കാനും":3571,"നടന്നു":3572,"നിലവ":3573,"ഒക്കെ":3574,"##്യാപ":3575,"നില്‍":3576,"##ലൈ":3577,"തൊഴ":3578,"##ിക്കാനുള്ള":3579,"##മുഖ":3580,"ഇൻ":3581,"##ുക്ക":3582,"കറ":3583,"##െത്ത":3584,"##ത്താണ്":3585,"##ംശ":3586,"##രുത്":3587,"അക്ക":3588,"സർവ":3589,"##കൊ":3590,"കുറഞ്ഞ":3591,"##സ്പ":3592,"പഴയ":3593,"അഭി":3594,"അതു":3595,"##വരുടെ":3596,"ഇത്ര":3597,"##ോൺ":3598,"ഭയ":3599,"സ്നേഹ":3600,"##ര്‍ശ":3601,"##ന്നി":3602,"ഡ്ര":3603,"മൈ":3604,"##ര്‍ച്ച":3605,"##ത്തിറ":3606,"കടന്നു":3607,"ഏകദേശം":3608,"കയറ":3609,"രാവ":3610,"##ാരു":3611,"മാത്രമാണ്":3612,"##ത്തോളം":3613,"പണ":3614,"##യിലാണ്":3615,"വ്യത്യസ്ത":3616,"മണിക്ക":3617,"##ികൾക്ക്":3618,"##ദ്ദേശ":3619,"##സ്സ്":3620,"റോഡ":3621,"സുഹൃ":3622,"ഉറപ്പ":3623,"##ുമുണ്ട്":3624,"##ുപോ":3625,"കൂടാതെ":3626,"##ിട്ടില്ല":3627,"ചെല":3628,"##ാഫ":3629,"##നോ":3630,"കാര്യം":3631,"##സിന്റെ":3632,"ദ്വീപ":3633,"##ക്ഷി":3634,"തയ്യ":3635,"ജി":3636,"199":3637,"ശ്രീ":3638,"പഠന":3639,"##റിൽ":3640,"സൂര്യ":3641,"ദേശീയ":3642,"ഇവിട":3643,"##ിയൻ":3644,"##ാനായി":3645,"എനിക്ക":3646,"സ്വപ്":3647,"കല്ല":3648,"പ്രതീക്ഷ":3649,"##്രമ":3650,"അപൂർ":3651,"എവിടെ":3652,"##രുന്ന":3653,"##േക്ക്":3654,"സംവിധാന":3655,"##ീൻ":3656,"സാധ്യത":3657,"##ണ്ണം":3658,"##ക്കോ":3659,"##ഷ്ഠ":3660,"##ിരുന്നത്":3661,"##റോ":3662,"##വിഡ്":3663,"##ാടി":3664,"വിശ്വാസ":3665,"ശതമാന":3666,"ഉദ":3667,"##കുപ്പ":3668,"##ക്കാർ":3669,"12":3670,"ബാല":3671,"##സര":3672,"##യ്ക്കും":3673,"##തിരെ":3674,"ചെയ്യുന്നു":3675,"##ിക്കൊണ്ട":3676,"ആദ":3677,"##ിറ്റ":3678,"##ുവെ":3679,"സാഹച":3680,"##ിപ":3681,"##ങ്ക്":3682,"##ിയുള്ള":3683,"##ർപ്പ":3684,"##വള":3685,"##സില":3686,"##വിള":3687,"ദേവ":3688,"ഫല":3689,"##ിട്ടും":3690,"##മന":3691,"##ിനുള്ള":3692,"##ക്കായി":3693,"ഗോ":3694,"ആയി":3695,"ചെയ്യുന്നത്":3696,"പരിശോധ":3697,"##ാർഥ":3698,"##ജ്ജ":3699,"##ാതി":3700,"ഒന്ന്":3701,"ലേഖ":3702,"നീണ്ട":3703,"##ോടൊപ്പം":3704,"##ടിഞ്ഞ":3705,"പരീക്ഷ":3706,"##ുമൊക്കെ":3707,"കുഴ":3708,"##ിക്കൽ":3709,"നന്ന":3710,"എന്നത്":3711,"പുറത്തിറ":3712,"സാഹിത്യ":3713,"വന":3714,"##യിട":3715,"##ക്ഷേ":3716,"##ാമത്തെ":3717,"##ിപ്പിക്കുന്ന":3718,"എങ്കിലും":3719,"##യുണ്ട്":3720,"സ്വയം":3721,"##ികെ":3722,"ഓഫ":3723,"##േദ":3724,"##ുമു":3725,"##പ്രവ":3726,"രേഖ":3727,"##മിഷ":3728,"സ്വീകര":3729,"മാധ":3730,"പ്രവേശ":3731,"##ുദ്ര":3732,"##ാളം":3733,"##ുമെല്ലാം":3734,"വാഹ":3735,"കുറച്ചു":3736,"##ഘട്ട":3737,"##ാച":3738,"ഉണ്ടാക":3739,"##ത്തിനുള്ള":3740,"##നീ":3741,"കാരണ":3742,"##ഗ്ഗ":3743,"##ന്ത്":3744,"##ാലയ":3745,"തമി":3746,"##േക്കും":3747,"##ായും":3748,"അതേ":3749,"അതിൽ":3750,"ഭാര്യ":3751,"##െയിൽ":3752,"##പ്രദേശ":3753,"##ാക്കള":3754,"അഭിന":3755,"ഭക്ഷണം":3756,"അന്വേഷ":3757,"##ുകാർ":3758,"ചിര":3759,"##നിന്നും":3760,"ക്രി":3761,"അയാള്‍":3762,"##നിയ":3763,"##ക്കാൻ":3764,"##ചെയ്യ":3765,"##യിലൂടെ":3766,"##ോടും":3767,"നിന്നുള്ള":3768,"കിഴ":3769,"രാത്രി":3770,"എൻ":3771,"കാലത്ത്":3772,"പോര":3773,"അവത":3774,"##മാക്കി":3775,"അപ്പ":3776,"സൃഷ്ട":3777,"ചെന്ന":3778,"##കുട്ട":3779,"ആയിര":3780,"മാല":3781,"മിക്ക":3782,"ഫെ":3783,"ധാര":3784,"ആദ്യത്തെ":3785,"ജെ":3786,"##ശി":3787,"വിമാന":3788,"##മാണ്‌":3789,"പാറ":3790,"ഞങ്ങൾ":3791,"##ിപ്പിച്ചു":3792,"വാർ":3793,"##ായം":3794,"തിരഞ്ഞ":3795,"മൂല":3796,"മറ്റ്":3797,"മുന്‍":3798,"ആരോഗ":3799,"രാമ":3800,"വാങ്ങ":3801,"##ക്തിയ":3802,"##ച്ചി":3803,"##തായി":3804,"##ൂറി":3805,"##രുഷ":3806,"വല്ല":3807,"##ൻസ്":3808,"മുട്ട":3809,"##ുക്കള":3810,"പേരിൽ":3811,"##ാഭ്യ":3812,"അനുവ":3813,"##ദ്യോഗ":3814,"വച്ച":3815,"##കോ":3816,"ഭാവ":3817,"ഒടുവ":3818,"അപകട":3819,"##വരും":3820,"##ത്തന്നെ":3821,"മുമ്പ്":3822,"കാലാവസ്ഥ":3823,"മൂന്ന്":3824,"##ണ്ടി":3825,"സാമൂഹ":3826,"##ാണോ":3827,"കൂടുതല്‍":3828,"നമ്പ":3829,"സുരക്ഷ":3830,"കാലം":3831,"ആദ്യമായി":3832,"നയ":3833,"##മാ":3834,"സാമ്പ":3835,"##സിക":3836,"##ിച്ചും":3837,"##േട്ട":3838,"##ലിൽ":3839,"##ുന്നില്ല":3840,"പക്ഷെ":3841,"##ുപത്ര":3842,"##സരിച്ച്":3843,"##ക്കുന്നത്":3844,"##ത്തിക":3845,"പുല":3846,"എന്നറിയ":3847,"വിനോദ":3848,"പുറത്ത":3849,"##ിവെ":3850,"##ഗണ":3851,"##ശയ":3852,"കർഷ":3853,"ഹോ":3854,"നാള":3855,"ഹൃ":3856,"ഡെ":3857,"മുകള":3858,"കാട":3859,"##റിന്റെ":3860,"##ിതമായ":3861,"വിശേഷ":3862,"##സ്കാര":3863,"കുമ":3864,"##ടുത്തെ":3865,"##യർ":3866,"പ്രശസ്ത":3867,"##രാജ":3868,"##ിടെ":3869,"ചുമ":3870,"വിശ്വസ":3871,"ചുരു":3872,"ദിന":3873,"##ോയി":3874,"സ്ഥാന":3875,"##േജ്":3876,"ബോധ":3877,"##സ്ത്ര":3878,"കമ":3879,"ഞങ്ങള്‍":3880,"ഫോട്ട":3881,"വീണ":3882,"##ായാലും":3883,"മന്ത്ര":3884,"തിരിച്ചു":3885,"അയാളുടെ":3886,"ഹിന്ദ":3887,"തടാക":3888,"##ീഡ":3889,"##ാളി":3890,"ടൂറി":3891,"##ഴി":3892,"##താപ":3893,"##ിക്കുകയ":3894,"കരി":3895,"##ങ്ങളായി":3896,"##ുണ്ടാക":3897,"കപ്പ":3898,"പാര":3899,"തുടർന്ന്":3900,"##ത്തിനായി":3901,"സൗകര":3902,"##ങ്ങും":3903,"##ിക്കുന്നുണ്ട്":3904,"നീല":3905,"##ക്കാലത്ത്":3906,"ബ്ല":3907,"##ങ്ങനെയാണ്":3908,"പാമ്പ":3909,"##ക്സ്":3910,"##ഷിക":3911,"കവ":3912,"##ന്മാർ":3913,"എന്നത":3914,"ഇപ്പോള്‍":3915,"##ുമായിരുന്നു":3916,"##ാനാവ":3917,"നിർമ":3918,"ശക്ത":3919,"എങ്ങനെ":3920,"##ത്വം":3921,"സർ":3922,"##ാവി":3923,"198":3924,"##ഷേ":3925,"രംഗ":3926,"മുതല":3927,"##ന്ദര":3928,"തയ്യാറ":3929,"നിമിഷ":3930,"നേടിയ":3931,"##ാഖ":3932,"സമുദ്ര":3933,"##ിട്ടു":3934,"ല്‍":3935,"##ിക്കൊ":3936,"##വസ്ഥ":3937,"മുതല്‍":3938,"അടിസ്ഥാന":3939,"സന്ദർശ":3940,"വിട":3941,"തൊട്ട":3942,"പെൺ":3943,"##ുതന്നെ":3944,"തന്നെയ":3945,"എണ്ണ":3946,"##തയ":3947,"##ിലേക്കുള്ള":3948,"പുന":3949,"പത്ത":3950,"##സിൽ":3951,"##ക്കൂ":3952,"##കൻ":3953,"പ്രസിദ്ധീകര":3954,"വേണം":3955,"വേദന":3956,"ജയ":3957,"ആസ്വ":3958,"##ച്ചിത്ര":3959,"##ുവിന്റെ":3960,"ചിത്രം":3961,"ബു":3962,"ഓട":3963,"##വാസ":3964,"പാക":3965,"##‌ന":3966,"##ീതി":3967,"ആഘ":3968,"സർക്കാർ":3969,"രക്ത":3970,"കയറി":3971,"വംശ":3972,"തങ്ങളുടെ":3973,"പൈ":3974,"നേതൃ":3975,"##ാതന്ത്ര":3976,"വരും":3977,"##തിയെ":3978,"ആശുപത്ര":3979,"##പക്ഷ":3980,"##ിപ്പ്":3981,"നീള":3982,"##െട്ട":3983,"കണ":3984,"വിദ്യാഭ്യ":3985,"ഭക്ഷണ":3986,"##ൃത്ത":3987,"##ക്കേ":3988,"##ാണിത്":3989,"##പാത":3990,"കേരളത്തിലെ":3991,"നോവല":3992,"നോക്കിയ":3993,"##ുകളാണ്":3994,"##ശ്വ":3995,"തിരുവ":3996,"ഡയ":3997,"അഥ":3998,"##വ്യ":3999,"ഒഴിവ":4000,"നമുക്ക്":4001,"സ്ഥിര":4002,"എഴുത്തുകാര":4003,"പത്ര":4004,"ഉണ്ടായിരുന്നു":4005,"##ംസ":4006,"##ടം":4007,"വാത":4008,"കഴിഞ്ഞു":4009,"വളർത്ത":4010,"##മാവ":4011,"##ശ്യം":4012,"##മാർ":4013,"##ുമോ":4014,"അധികാര":4015,"##ല്ലേ":4016,"ഒരാള":4017,"കിലോമീറ്റർ":4018,"##ോടു":4019,"##ൽപ്പ":4020,"ഉച്ച":4021,"##ാന്ധ":4022,"ഇതിന്റെ":4023,"മറുപ":4024,"##ണമെന്ന":4025,"കുറവ":4026,"##രിയ":4027,"പുരുഷ":4028,"ഇദ്ദേഹ":4029,"##തിനു":4030,"##ുകി":4031,"അങ്ങ":4032,"##ാക്കുന്ന":4033,"നടപ്പ":4034,"30":4035,"പലരും":4036,"വൈറ":4037,"അന്ത":4038,"##ത്തുള്ള":4039,"##്യമായ":4040,"##പ്പറ്റി":4041,"പദ":4042,"ഹൃദ":4043,"സംഘടന":4044,"##സൈ":4045,"പോവ":4046,"##രായ":4047,"സഹോദ":4048,"##ര്‍ന്നു":4049,"##ാപാത്ര":4050,"പൊതു":4051,"##രിത":4052,"പേർ":4053,"കന":4054,"പ്രവര്‍ത്ത":4055,"വിശദ":4056,"വടക്ക":4057,"പൊട്ട":4058,"##പ്പെടുത്തി":4059,"##പിട":4060,"##രിച്ച":4061,"##ള്ളി":4062,"നിരീക്ഷ":4063,"മറ്റും":4064,"സര്‍":4065,"എടുക്ക":4066,"##യ്‌":4067,"പൊലീസ്":4068,"തക":4069,"197":4070,"സമയത്ത്":4071,"ദൈവ":4072,"കോൺ":4073,"വിദേശ":4074,"പ്രച":4075,"##ഞ്ജ":4076,"##ൻഡ":4077,"ആല":4078,"പലപ്പോഴും":4079,"ചിക":4080,"##കളില്‍":4081,"രാവിലെ":4082,"##ണമെന്ന്":4083,"##ര്‍ന്ന്":4084,"താഴെ":4085,"##തിരോധ":4086,"അഥവാ":4087,"തെര":4088,"##ീം":4089,"##ഭുത":4090,"പരിചയ":4091,"അണ":4092,"ആരാധ":4093,"##ിന്ന":4094,"##ിച്ചെ":4095,"തന":4096,"പിറ":4097,"ബീ":4098,"പെണ്ണ":4099,"അതിനെ":4100,"വട":4101,"കാണാൻ":4102,"വീട്ടിൽ":4103,"കമ്മ":4104,"ചോദിച്ചു":4105,"നോവ":4106,"പങ്കുവ":4107,"സംബന്ധ":4108,"ആര്‍":4109,"ദൂര":4110,"##ോപ്പ":4111,"##േഴ്":4112,"പെണ്‍":4113,"##ുന്നതിന്":4114,"സാമ്പത്തിക":4115,"സ്വാതന്ത്ര":4116,"##ഖ്യാപ":4117,"##ഫ്ര":4118,"ഇന്ത്യയിലെ":4119,"എടുത്ത":4120,"അന്തര":4121,"ഒരുപാട്":4122,"25":4123,"റിസ":4124,"ശിവ":4125,"##ിയില":4126,"##ൗര":4127,"പോകുന്ന":4128,"ഇപ്പോഴും":4129,"അവളെ":4130,"##ട്ടം":4131,"##ിന്റെയും":4132,"വെച്ച":4133,"റൂ":4134,"തൃ":4135,"##ത്തിന്റെയും":4136,"##കളാണ്":4137,"യഥ":4138,"താര":4139,"സാഹചര്യ":4140,"എന്നതാണ്":4141,"രണ്ടാം":4142,"ഇരുപ":4143,"##ശ്യമ":4144,"##പ്പോഴാണ്":4145,"ചന്ദ്ര":4146,"വളര":4147,"തോന്നി":4148,"അതുകൊണ്ട":4149,"ഇവർ":4150,"അവിട":4151,"പ്രതിക":4152,"ഞങ്ങളുടെ":4153,"തുടങ്ങിയവ":4154,"ചുവ":4155,"##തുക":4156,"##ിച്ചില്ല":4157,"ബൈ":4158,"തൊഴില":4159,"##്ത":4160,"ഒന്നു":4161,"അഭിപ്ര":4162,"##േരി":4163,"##ത്തിനെ":4164,"##സിയ":4165,"16":4166,"##ിഞ്ഞ്":4167,"പ്ലാ":4168,"##ാംഗ":4169,"##ിത്സ":4170,"പ്രേ":4171,"പറഞ്ഞത്":4172,"ജോല":4173,"ഇന്നും":4174,"##ുകളിലും":4175,"പ്രസിഡ":4176,"അവൻ":4177,"യൂറ":4178,"കാറ്റ":4179,"മുൻപ്":4180,"പാര്‍":4181,"##താവ":4182,"##മ്പ്":4183,"##കൃത":4184,"##ഴുന്ന":4185,"##ഹാര":4186,"മാറിയ":4187,"##താ":4188,"##തുവ":4189,"##ക്കാണ്":4190,"കാവ":4191,"##ശാല":4192,"##പരി":4193,"പ്രഖ്യാപ":4194,"നശ":4195,"കൊല":4196,"##േഷ്":4197,"തോന്നിയ":4198,"##ഹമ്മ":4199,"മുള":4200,"##മുറ":4201,"ആസ്വദ":4202,"ആഴ":4203,"കത്ത":4204,"##ിക്കാതെ":4205,"##ിക്കുമ്പോൾ":4206,"##ിച്ചേ":4207,"വസ്തു":4208,"17":4209,"ചെയ്യും":4210,"ആകാശ":4211,"ചെട":4212,"##സാ":4213,"##ുമെന്ന്":4214,"##തിയിൽ":4215,"പരിശീല":4216,"തീവ":4217,"##ത്തെയും":4218,"നൽകി":4219,"##ിരു":4220,"##ാടക":4221,"വിട്ട":4222,"നടക്കുന്ന":4223,"##കരമായ":4224,"##ായിട്ട":4225,"ആരോഗ്യ":4226,"000":4227,"##ിലേക്കും":4228,"##തോ":4229,"##വഴ":4230,"ചലച്ചിത്ര":4231,"##ാക്കാൻ":4232,"##ിന്റ":4233,"തള":4234,"##പ്പെടെ":4235,"##കരണ":4236,"മാസം":4237,"കൂടുതല":4238,"##ോഗ്ര":4239,"##മാക്കിയ":4240,"##ുണ്ടായ":4241,"##പ്പോലെ":4242,"##ാണ്ട്":4243,"ദൃശ്യ":4244,"പൂര്‍":4245,"പ്രകൃതി":4246,"പശ്ച":4247,"##ക്കൂട്ട":4248,"അധികം":4249,"കഥാപാത്ര":4250,"ഉത്":4251,"ഹോട്ട":4252,"##രുത":4253,"##ാര്‍ത്ഥ":4254,"ആറ":4255,"##ിട്ടുണ്ട":4256,"##പാദ":4257,"##ീവ്":4258,"ആധ":4259,"##ലുകൾ":4260,"##േല":4261,"##െയോ":4262,"ആരും":4263,"##േഷ്യ":4264,"നടത്തി":4265,"തവണ":4266,"##ർണ്ണ":4267,"##ക്ഷേപ":4268,"സ്ഥലം":4269,"11":4270,"##ിക്കാത്ത":4271,"അവകാശ":4272,"കുറിച്ച്":4273,"മുഴുവൻ":4274,"##ാവിക":4275,"##ിച്ചാൽ":4276,"എള":4277,"ആളുകൾ":4278,"മതി":4279,"##തന്ത്ര":4280,"ദൂ":4281,"നിൽക്കുന്ന":4282,"##ിം":4283,"##ഷേധ":4284,"##ബോധ":4285,"ഒരേ":4286,"പറഞ്ഞ്":4287,"##ീണ":4288,"ഗണ":4289,"##രിക":4290,"മത്സ്യ":4291,"##ിച്ചുകൊണ്ട":4292,"##ുകാല":4293,"സൂച":4294,"കെട്ടിട":4295,"ഇത്തര":4296,"##േറിയ":4297,"അവതരിപ്പ":4298,"##ീപ്":4299,"എല്ലാവരും":4300,"മാര്‍":4301,"മുറിയ":4302,"അവന്റെ":4303,"##ിച്ചാണ്":4304,"##ങ്കര":4305,"##ക്കൻ":4306,"##വുമായ":4307,"തണുപ്പ":4308,"ചികിത്സ":4309,"ശേഖ":4310,"##നില്‍":4311,"##ികള്‍ക്ക്":4312,"##െന്ത":4313,"##ക്കുമ":4314,"പകരം":4315,"നന്നായി":4316,"ഇതിൽ":4317,"ഘട":4318,"ഉണ":4319,"##ടുന്ന":4320,"##ിട്ടുള്ള":4321,"##ില്ലാതെ":4322,"തെരഞ്ഞ":4323,"##ശല":4324,"ഒപ്പം":4325,"കേൾ":4326,"##ഷൻ":4327,"ചെറു":4328,"മോഹ":4329,"പാത":4330,"##യുടെയും":4331,"എത്തി":4332,"##ിക്കാര":4333,"##സ്ല":4334,"ചെയ്ത്":4335,"കായ":4336,"##ാന്യ":4337,"##പോക":4338,"രുച":4339,"പിന്":4340,"##വസ":4341,"##ൂല":4342,"സ്കൂള":4343,"പുഴ":4344,"മനോഹരമായ":4345,"##യു":4346,"കഴിവ":4347,"നാടക":4348,"മത്സര":4349,"പടിഞ്ഞ":4350,"വകുപ്പ":4351,"##ന്ഥ":4352,"പ്രതിരോധ":4353,"##ർത്തു":4354,"പിടിച്ചു":4355,"വച്ച്":4356,"ആകെ":4357,"ഉപയോഗിച്ച്":4358,"വര്‍":4359,"ചേര":4360,"മറ്റുള്ള":4361,"മുന്നിൽ":4362,"196":4363,"##ാലോ":4364,"കണ്ട്":4365,"മാധ്യമ":4366,"പുസ്തകം":4367,"##ഫി":4368,"മധ്യ":4369,"##ുപോക":4370,"##േസ്":4371,"##ങ്ങളിലൂടെ":4372,"##വശ":4373,"##ികളാണ്":4374,"ഹിമ":4375,"തെറ്റ":4376,"ഒരിക്കലും":4377,"ദുര":4378,"##ുന്നുണ്ട":4379,"##ദർശ":4380,"##ങ്ങൾക്കു":4381,"##യിലുള്ള":4382,"##ഡ്‌":4383,"##ഴുത":4384,"ചായ":4385,"തീറ്റ":4386,"##സഞ്ച":4387,"കാണുന്ന":4388,"അനുവദ":4389,"##ക്ഷര":4390,"മാതൃ":4391,"##ാത്രം":4392,"##ീകരണ":4393,"ഉള്‍":4394,"##വിടുത്തെ":4395,"##ദ്വ":4396,"നേരം":4397,"##പ്പറ":4398,"മാറ്റി":4399,"ആഘോഷ":4400,"പറയുന്ന":4401,"അതുകൊണ്ട്":4402,"##ഡോ":4403,"##ാണെന്ന":4404,"##സ്ര":4405,"ഗാന്ധ":4406,"##ിത്":4407,"തയ":4408,"##ലിന്റെ":4409,"##സഭ":4410,"##ിതം":4411,"##ഷ്‌":4412,"കിലോമീറ്റ":4413,"##നുസരിച്ച്":4414,"അത്യ":4415,"ബല":4416,"##ട്ടിൽ":4417,"ജൈവ":4418,"##സൂ":4419,"##എസ്":4420,"##പാല":4421,"ജില്ലയിലെ":4422,"മക്കള":4423,"വിദ":4424,"അതിന്":4425,"അതിര":4426,"195":4427,"##ാശാല":4428,"സേവ":4429,"ദേ":4430,"തിരികെ":4431,"കുത്ത":4432,"##ാഗ്ര":4433,"##ോട്ടു":4434,"##തിൽ":4435,"മൗ":4436,"##ിനോട്":4437,"##ാഗ്":4438,"പത":4439,"അമ്പ":4440,"##ീവ":4441,"വിത":4442,"##ുവരി":4443,"മൂലം":4444,"##വരാണ്":4445,"അല്ലെങ്കിൽ":4446,"##ാഴ":4447,"##ുകളിലെ":4448,"കൊടുത്ത":4449,"എളുപ്പ":4450,"കാമ":4451,"തരം":4452,"##തിന്റെ":4453,"പുറത്തു":4454,"##ക്ഷിണ":4455,"വെറ":4456,"##ങ്കേത":4457,"##ിലായി":4458,"ലേഖനം":4459,"##ാക്ക്":4460,"സംശയ":4461,"വിവാഹം":4462,"താപ":4463,"സൈന":4464,"വിഷയ":4465,"പെട്ടെന്ന്":4466,"##ുമെ":4467,"ഉപേക്ഷ":4468,"##ത്തുന്ന":4469,"തുടക്ക":4470,"വിളിച്ചു":4471,"പേരു":4472,"14":4473,"##ുപിട":4474,"##റുടെ":4475,"##ായക":4476,"നവ":4477,"കമ്പന":4478,"##കാലത്ത്":4479,"##ങ്ങളെയും":4480,"ആഗ":4481,"##മല":4482,"##ിച്ചുള്ള":4483,"##ുണ്ടായിരുന്ന":4484,"##േണ്ടത്":4485,"വെച്ച്":4486,"##ംപ":4487,"മുൻപ":4488,"ഓർമ":4489,"##ാന്റെ":4490,"##ാനു":4491,"കൊച്ച":4492,"അധ്യാപ":4493,"##ാത്മ":4494,"##നാട്ട":4495,"വൻ":4496,"##ണൽ":4497,"നേരെ":4498,"മുഖം":4499,"ധാരാളം":4500,"സഹോദര":4501,"##വൻ":4502,"##ഴിഞ്ഞ":4503,"##ളയ":4504,"നടപ":4505,"##ൊന്ന്":4506,"ചെയ്യാൻ":4507,"ഫ്ല":4508,"തിരിച്ചറിയ":4509,"നമ്മൾ":4510,"അടുക്ക":4511,"ഫോട്ടോ":4512,"പാവ":4513,"##ളള":4514,"##കലാശാല":4515,"താൻ":4516,"വഴിയ":4517,"ഒടുവിൽ":4518,"രൂപം":4519,"പച്ചക്ക":4520,"##ിരിക്ക":4521,"##രുമ്പ":4522,"തിരക്ക":4523,"##ുടേയും":4524,"##ാലെ":4525,"##ിടയിൽ":4526,"##ാധിപ":4527,"##ോടുള്ള":4528,"##ക്കള്‍":4529,"##ക്ഷത്ര":4530,"അവർക്ക്":4531,"പള്ള":4532,"ഒള":4533,"കാര്‍":4534,"100":4535,"കുന്ന":4536,"##ത്തുട":4537,"##നവും":4538,"##വർക്ക്":4539,"##ോള്‍":4540,"കോഴിക്ക":4541,"##ുപോലെ":4542,"##നായിരുന്നു":4543,"##ഭം":4544,"ചെയ്തത്":4545,"##ണ്ണ്":4546,"##ിരിക്കുകയാണ്":4547,"സ്ഥിതിചെയ്യ":4548,"##ങ്ങളുടെയും":4549,"##കി":4550,"##ോല":4551,"##തിട്ട":4552,"കോവിഡ്":4553,"സാം":4554,"ചോദ്യം":4555,"##ികമായി":4556,"മാതാപ":4557,"##ർത്ത്":4558,"മാതാപിത":4559,"വെളിച്ച":4560,"തമിഴ്":4561,"അടിയ":4562,"കാറ":4563,"##ായില്ല":4564,"##ച്ചാട്ട":4565,"പ്രകട":4566,"സുഖ":4567,"ഗാന":4568,"പഞ്ചായ":4569,"ടൈ":4570,"കിടക്കുന്ന":4571,"റിപ്പോർ":4572,"##ാദേശ":4573,"##ാമി":4574,"പ്രത്യേകത":4575,"അഭിനയ":4576,"സ്വാധ":4577,"##തിനെ":4578,"കാസ":4579,"##ോസ്":4580,"വൈദ്യ":4581,"##റുത്ത":4582,"നന":4583,"രസ":4584,"ഹൃദയ":4585,"13":4586,"വാദ":4587,"നിന്നാണ്":4588,"##േരം":4589,"##ാറില്ല":4590,"##ുമ്പോഴും":4591,"##കുമ":4592,"ചീ":4593,"പ്രിയപ്പെട്ട":4594,"റഷ്യ":4595,"##ുധ":4596,"##പുര":4597,"##ികളില്‍":4598,"ചേർന്ന":4599,"##കാര്യ":4600,"നാര":4601,"##മയ":4602,"സമ്മാന":4603,"കുട്ടികൾ":4604,"ജീവന":4605,"സൈനിക":4606,"##ബ്ല":4607,"മ്യൂ":4608,"ട്രെയ":4609,"കൊണ്ടു":4610,"##നാട":4611,"##പ്പൊ":4612,"##ാഗത":4613,"##ാന്തര":4614,"##ുകിട":4615,"ആകർഷ":4616,"##നത്തിന്റെ":4617,"##ുപ്ര":4618,"##ുകൂടി":4619,"##ിച്ചിരുന്നത്":4620,"##ുഖ":4621,"##റിഞ്ഞു":4622,"ഉരു":4623,"##റയ":4624,"ബംഗ":4625,"ഇന്‍":4626,"##യാത്ര":4627,"##തിയും":4628,"##ക്സി":4629,"ലോകത്തിലെ":4630,"ആശയ":4631,"നു":4632,"##ക്കുറിച്ചുള്ള":4633,"##പ്റ്റ":4634,"##ൻഡ്":4635,"##വിശ":4636,"##സും":4637,"##ദ്ധ്യ":4638,"##േൽ":4639,"##ീര്‍":4640,"##ാക്കൾ":4641,"##്രാജ":4642,"ടീച്ച":4643,"ബുദ്ധിമു":4644,"സസ്യ":4645,"##ിലോ":4646,"##െത്തിയ":4647,"##ിക്കുകയായിരുന്നു":4648,"##പ്പുഴ":4649,"##മാര്‍":4650,"വന്നത്":4651,"##ാണെന്നും":4652,"മറുപടി":4653,"##ീരം":4654,"##ക്കട":4655,"കൊട്ട":4656,"തട്ട":4657,"പരസ്പ":4658,"##ഭൂമ":4659,"പരമ്പര":4660,"പ്രശ്ന":4661,"194":4662,"ഓഫീസ":4663,"##വിട്ട":4664,"സാമൂഹിക":4665,"വേഗ":4666,"ഉണ്ടാക്ക":4667,"അപൂർണ്ണ":4668,"##മത":4669,"##പ്പുറം":4670,"##്യമാണ്":4671,"പിടിച്ച":4672,"ആട":4673,"പതിവ":4674,"##നന്ത":4675,"##ബു":4676,"##ിക്കപ്പെട":4677,"ശതമാനം":4678,"മനസില":4679,"ഞാനും":4680,"##മില്ലാത്ത":4681,"പഠനം":4682,"ശൈ":4683,"ദക്ഷിണ":4684,"കള്ള":4685,"##പൂർ":4686,"മുത്ത":4687,"പ്രകാരം":4688,"##ാസി":4689,"നേതൃത്വ":4690,"തുറന്നു":4691,"കഴിഞ്ഞ്":4692,"##സർ":4693,"##ാവശ്യ":4694,"വെള്ളച്ചാട്ട":4695,"വർധ":4696,"##ുനിക":4697,"##ക്കാര്‍":4698,"ചതു":4699,"നേട":4700,"ഇത്ത":4701,"ഫി":4702,"നാം":4703,"നിശ്ച":4704,"പരിപാട":4705,"അപൂർണ്ണമാണ്‌":4706,"##ബൈ":4707,"ഏഴ":4708,"ഒഴുക":4709,"##സ്ട്ര":4710,"##റ്റ്‌":4711,"##ടങ്ങ":4712,"##ിക്കില്ല":4713,"##പ്പെട്ടത്":4714,"##പെട":4715,"##ക്രിയ":4716,"##ൽപാദ":4717,"സഞ്ചര":4718,"##തുപോലെ":4719,"രീതിയിൽ":4720,"ചൂട":4721,"പൂച്ച":4722,"##ക്കാന്‍":4723,"നിങ്ങളുടെ":4724,"കടന്ന":4725,"അന്തരീക്ഷ":4726,"##ാനാണ്":4727,"വേറെ":4728,"ഗ്ല":4729,"##ഫല":4730,"##വയ":4731,"വാര്‍":4732,"കേരളത്തിൽ":4733,"സഹായിക്കുക":4734,"എണ്ണം":4735,"##േർ":4736,"##ുമെന്ന":4737,"സ്വഭാവ":4738,"നമ്മള":4739,"പണം":4740,"ബ്രിട്ടീഷ്":4741,"ഉമ്മ":4742,"വന്യ":4743,"കാലഘട്ട":4744,"അപ്ര":4745,"##ങ്ങളായ":4746,"പെരുമ":4747,"പൂർണ":4748,"വര്‍ഷം":4749,"##പരമായ":4750,"##കൾക്ക്":4751,"പോലുള്ള":4752,"##ിപ്പിക്കുവാൻ":4753,"വ്യക്തി":4754,"ഭാഗമായി":4755,"ഉടമ":4756,"സൗകര്യ":4757,"വാഹന":4758,"##ഹമ്മദ്":4759,"ദി":4760,"ഭൂമി":4761,"##മന്ത്ര":4762,"എഴുതി":4763,"നിങ്ങൾ":4764,"തെരുവ":4765,"നടത്തുന്ന":4766,"തയാറ":4767,"മരു":4768,"ഉയർന്ന":4769,"കാര്യങ്ങൾ":4770,"അകല":4771,"തൈ":4772,"##ിനെയും":4773,"##ാട്ട്":4774,"ഭാഗം":4775,"പൊലീസ":4776,"##തിനാല്‍":4777,"ഏഷ്യ":4778,"വില്ല":4779,"ആലോ":4780,"കൊറ":4781,"അദ്ദേഹത്തെ":4782,"തുറന്ന":4783,"നായ്":4784,"വസ്ത്ര":4785,"##ല്പ":4786,"കുറച്ച്":4787,"വസ":4788,"##പോയ":4789,"കാരണമ":4790,"##കേന്ദ്ര":4791,"ഇന്ത്യയുടെ":4792,"സമര":4793,"മീറ്റർ":4794,"അമേരിക്കൻ":4795,"ഒട്ടേറെ":4796,"##ല്‍പ്പ":4797,"##്യമുള്ള":4798,"രഹ":4799,"അര്‍":4800,"പരിഹ":4801,"ഇവയുടെ":4802,"തിരുവനന്ത":4803,"##ഘടന":4804,"ഇതുവരെ":4805,"വണ്ട":4806,"കടുവ":4807,"മണിക്കൂറ":4808,"വന്ന്":4809,"##ര്യം":4810,"##തയും":4811,"##ർഭ":4812,"##തയുടെ":4813,"##യോടെ":4814,"നക്ഷത്ര":4815,"##ഡ്ര":4816,"പ്രാധ":4817,"നാല്":4818,"##ോബ":4819,"##ികളായ":4820,"വീട്":4821,"##ങ്ങളുമായി":4822,"പ്രകാശ":4823,"വീട്ടില്‍":4824,"ത്ര":4825,"##ജീവിത":4826,"##റ്ററ":4827,"ചേർന്ന്":4828,"അങ്ങനെയ":4829,"തുടര":4830,"##പ്പോഴേക്കും":4831,"##ുകൾക്ക്":4832,"ഇറങ്ങ":4833,"വെറും":4834,"##ിച്ചിരിക്കുന്നത്":4835,"##ഹ്മ":4836,"##ീക":4837,"ചൂണ്ട":4838,"##ാണെങ്കിലും":4839,"വധ":4840,"ഓര്‍മ്മ":4841,"##ുകു":4842,"അവന്‍":4843,"വശ":4844,"##വിശേഷ":4845,"##ാവിന്റെ":4846,"##യെല്ലാം":4847,"ഉദ്യോഗ":4848,"പ്രയ":4849,"##കൂൾ":4850,"ഇന്റ":4851,"അഴ":4852,"ഗോപ":4853,"##ിനം":4854,"വീട്ടിലെ":4855,"സാക്ഷ":4856,"സഭ":4857,"##ദി":4858,"എന്താണ്":4859,"##പ്പൻ":4860,"സ്വപ്ന":4861,"വികസിപ്പിക്കുവാൻ":4862,"##ട്ടും":4863,"കേസ":4864,"##്യൻ":4865,"വിമ":4866,"##ാറും":4867,"##ക്കമുള്ള":4868,"##ോജ":4869,"അവയുടെ":4870,"കൃഷ്ണ":4871,"മാനസിക":4872,"തറ":4873,"ദ്ര":4874,"ശബ്ദം":4875,"അഭിപ്രായ":4876,"അന്നത്തെ":4877,"ചെറുപ്പ":4878,"വളര്‍ത്ത":4879,"ടാ":4880,"##ബാധ":4881,"ചൊ":4882,"ഹി":4883,"##ചിത്ര":4884,"ലോകം":4885,"##ാഭാവിക":4886,"നാലു":4887,"സാമ്രാജ":4888,"ജന്മ":4889,"ഒരുമ":4890,"വിദ്യാഭ്യാസ":4891,"##കരുടെ":4892,"##ിക്കിട":4893,"##ങ്ങളിലേക്ക്":4894,"നല്‍കിയ":4895,"ഇതിനു":4896,"ഷെ":4897,"##ങ്കേതിക":4898,"##കളിലും":4899,"മുകളിൽ":4900,"അപ്പോൾ":4901,"##ൻറെ":4902,"##ാതന":4903,"##ിക്കാനായി":4904,"ചുറ്റും":4905,"പദ്ധതി":4906,"സ്റ്റേഷ":4907,"തള്ള":4908,"കയറിയ":4909,"202":4910,"##കാലം":4911,"##ീരിയ":4912,"എന്ത്":4913,"##ാദ്":4914,"##ക്കര":4915,"##തരം":4916,"കുട്ടി":4917,"പരാജ":4918,"വഹ":4919,"അറിഞ്ഞ":4920,"##വിദ്യ":4921,"വയ്ക്ക":4922,"##യുമായി":4923,"രോഗം":4924,"##ന്നിധ":4925,"അച്ച":4926,"നാമ":4927,"##ത്തോട്":4928,"##്മെ":4929,"സംസ്":4930,"പുതു":4931,"ഇല്ലാത":4932,"നന്ദ":4933,"##ിച്ചുവ":4934,"##രൂപ":4935,"50":4936,"##ഷി":4937,"##പ്രവർത്ത":4938,"##ക്കൊപ്പം":4939,"##കൊണ്ട്":4940,"##സഞ്ചാര":4941,"##ിക്കൂ":4942,"##ാണം":4943,"വരുന്നത്":4944,"യോഗ":4945,"##ിതമായി":4946,"ആവശ്യമ":4947,"##കഥ":4948,"ചെറുത":4949,"##ുവേണ്ടി":4950,"ആഫ്ര":4951,"##മാധ":4952,"പ്രണ":4953,"നാഗ":4954,"##ാനെ":4955,"ആഴ്ച":4956,"പരിസ്ഥ":4957,"പ്രവർത്തന":4958,"വരുമാന":4959,"തടയ":4960,"അഗ്":4961,"ഏതു":4962,"ആധുനിക":4963,"##ർഗ":4964,"##ങ്ങളുണ്ട്":4965,"ബിര":4966,"##മാണിത്":4967,"##ക്കിടെ":4968,"കേള്‍":4969,"ലാണ്":4970,"വാർത്ത":4971,"എന്നിങ്ങനെ":4972,"##ംഹ":4973,"##ിക്കറ്റ്":4974,"##ാനോ":4975,"ഉന്ന":4976,"തോട്ട":4977,"അതില്‍":4978,"##പുരം":4979,"##ീറ്റ്":4980,"##്വാസം":4981,"ഇനിയും":4982,"തീവ്ര":4983,"അഞ്ച്":4984,"##നിറ":4985,"അപേക്ഷ":4986,"##ിലി":4987,"തെളിവ":4988,"##രുത്ത":4989,"മുഖ്യ":4990,"##ിപ്പിക്കുന്നു":4991,"ഇന്ത്യയിൽ":4992,"ഓട്ട":4993,"ഫോ":4994,"##മയം":4995,"##ിയായിരുന്നു":4996,"##ിരുന്നില്ല":4997,"ഭൂരി":4998,"ഇതേ":4999,"കണ്ടെത്തി":5000,"##ിലായിരുന്നു":5001,"എന്നിവിട":5002,"##പോല":5003,"ശുദ്ധ":5004,"ഇതിനെ":5005,"റേ":5006,"വാങ്ങി":5007,"##ൽഹ":5008,"അച്ഛൻ":5009,"കറുത്ത":5010,"പണി":5011,"ക്ലാസ":5012,"അതും":5013,"നര":5014,"##സന്ധ":5015,"സോഷ്യ":5016,"ശാന്ത":5017,"മറക്ക":5018,"##ല്ലി":5019,"##തമ":5020,"ക്ഷേത്രം":5021,"##ാരാഷ്ട്ര":5022,"വേന":5023,"##റ്റിൽ":5024,"കോളേജ":5025,"സമാധ":5026,"അളവ":5027,"##വിര":5028,"ആഫ്രിക്ക":5029,"##മൊരു":5030,"##ക്കെട്ട":5031,"നൈ":5032,"വേട്ട":5033,"നേത":5034,"കണക്കാക്ക":5035,"ഉദ്യോഗസ്ഥ":5036,"കാണാന്‍":5037,"##്യൂണി":5038,"##വേദ":5039,"അഞ്ചു":5040,"കച്ച":5041,"##ഗു":5042,"പൂർത്തിയ":5043,"##യുണ്ട":5044,"തമ്മിലുള്ള":5045,"##ിയിലേക്ക്":5046,"പിര":5047,"തെളിയ":5048,"##പ്പും":5049,"സംവിധാനം":5050,"പ്രൊ":5051,"കുറച്ച":5052,"നാഷ":5053,"ഏതാണ്ട്":5054,"ലൈംഗ":5055,"സ്വാഭാവിക":5056,"##വന":5057,"കൊള്ള":5058,"##ണക്കിന്":5059,"സുഹൃത്തു":5060,"##ാകുന്ന":5061,"അദ്ദേഹത്തിന്":5062,"ഒഴിവാക്ക":5063,"##മെന്ന":5064,"കൊറോണ":5065,"മനസ്സിൽ":5066,"ക്വ":5067,"കുടിയ":5068,"##വുമാണ്":5069,"സർക്കാര":5070,"ഇപ്പോഴ":5071,"##ുകെ":5072,"സാങ്കേതിക":5073,"##െടുത്തു":5074,"ഉത്ത":5075,"##തിന്":5076,"എന്തെങ്കിലും":5077,"ഗ്രന്ഥ":5078,"ഒന്നാം":5079,"##ുമല്ല":5080,"##ിപ്പിട":5081,"കഴിയുന്ന":5082,"##ർക്ക്":5083,"ലക്ഷം":5084,"സംഭവം":5085,"സുന്ദര":5086,"ഉണ്ടാവ":5087,"അള":5088,"##കമായി":5089,"പിന്തു":5090,"ഭഗ":5091,"ഡിസം":5092,"നിൽക്ക":5093,"##ക്ഷേത്ര":5094,"ശിക്ഷ":5095,"എന്‍റെ":5096,"കൊട":5097,"##തെന്ന്":5098,"##ണ്ടു":5099,"വിൽ":5100,"##വയാണ്":5101,"മിനി":5102,"അറിവ":5103,"##കമായ":5104,"##ാച്ച":5105,"##ീൽ":5106,"കോൺഗ്ര":5107,"##ൻപ":5108,"##സ്റ്റർ":5109,"കിടക്ക":5110,"അയ്യ":5111,"പ്രഭ":5112,"ഗ്രൂ":5113,"##ൽത്ത":5114,"##ങ്ങൾക്കും":5115,"കഴിയും":5116,"കുട്ടികളെ":5117,"##സെ":5118,"##ഭാഗം":5119,"##യ്ക്കുന്ന":5120,"ഘട്ട":5121,"##റ്റം":5122,"പൗര":5123,"ഇല്ലാത്ത":5124,"വരെയുള്ള":5125,"സമാന":5126,"കട്ട":5127,"##ഹ്":5128,"കാശ":5129,"പടിഞ്ഞാറ":5130,"പരിഗണ":5131,"കൃത്യമായി":5132,"##െടുപ്പ":5133,"##ിച്ചുകൊണ്ട്":5134,"ഭാരത":5135,"ഭീഷ":5136,"##ിച്ചിരിക്കുന്നു":5137,"പരിശോധന":5138,"##ാണെന്നു":5139,"ദിവസവും":5140,"സ്വാതന്ത്ര്യ":5141,"കര്‍ഷ":5142,"##വത":5143,"##ലോക":5144,"##പ്പാട":5145,"##സംഖ്യ":5146,"##ായ്മ":5147,"നിന്റെ":5148,"##ിയെടുക്ക":5149,"##ഹൃദ":5150,"മുംബ":5151,"##്യൂട്ട":5152,"##മൂ":5153,"പിന്ത":5154,"ഒരാൾ":5155,"നേരിട":5156,"##ാഘ":5157,"വെബ്":5158,"നമ്മള്‍":5159,"പാകി":5160,"നിന":5161,"ഇദ്ദേഹം":5162,"##നാട്":5163,"ജയില":5164,"ഉദാഹ":5165,"കുട്ടികളുടെ":5166,"##ുന്നതിനു":5167,"##ിരുന്ന്":5168,"പരസ്പരം":5169,"ക്യാമ":5170,"നിങ്ങള്‍":5171,"##ങ്ങിയത്":5172,"##ാപ്":5173,"##ിന്യ":5174,"സ്ക":5175,"കൂടിയാണ്":5176,"വരുമ്പ":5177,"ഏപ്ര":5178,"ഒന്നാണ്":5179,"##തിനി":5180,"ദൈ":5181,"അയാളെ":5182,"##പ്ല":5183,"പരാജയ":5184,"റി":5185,"##യ്ക്കുള്ള":5186,"എപ്പോഴും":5187,"റെയിൽ":5188,"##വീ":5189,"##ഖ്":5190,"സെന്റ":5191,"ടൂറിസം":5192,"##ലില്‍":5193,"##ായണ":5194,"വിദഗ്":5195,"##മം":5196,"ഞങ്ങളെ":5197,"താപനില":5198,"##ശം":5199,"40":5200,"മരണം":5201,"കടുത്ത":5202,"##പ്പറ്റ":5203,"ലൈംഗിക":5204,"കൊള":5205,"ശില":5206,"ചർച്ച":5207,"മണി":5208,"ലോകത്തെ":5209,"തമ്മിൽ":5210,"##ർക്കും":5211,"മുംബൈ":5212,"##കൊണ്ട":5213,"##ാകുന്നു":5214,"ചേട്ട":5215,"വാഴ":5216,"രച":5217,"##തുമ":5218,"പ്രമുഖ":5219,"സ്‌കൂള":5220,"പീഡ":5221,"##ൃതിയ":5222,"##ത്തം":5223,"പുറത്ത്":5224,"##ക്കാലം":5225,"അംഗീകര":5226,"##മാല":5227,"##സില്‍":5228,"സ്‌നേഹ":5229,"അനുമ":5230,"ഉദ്":5231,"##ത്തേക്കു":5232,"കൗതുക":5233,"നൂറ":5234,"തിരു":5235,"എടുത്തു":5236,"അവനെ":5237,"സജീവ":5238,"അതുപോലെ":5239,"##ിറങ്ങി":5240,"ഉത്സ":5241,"##ോക്ക":5242,"##ൈൻ":5243,"##േലിയ":5244,"##ുപോയ":5245,"തിള":5246,"##ലിം":5247,"##സ്റ്റിക്":5248,"മദ":5249,"##യൻ":5250,"##ല്ലു":5251,"എതിര":5252,"##ാരും":5253,"##ായാണ്":5254,"##ിക്കപ്പെട്ടു":5255,"കാണുന്നത്":5256,"വലുപ്പ":5257,"##ുകയുണ്ടായി":5258,"വിപ്ല":5259,"##ികൂ":5260,"കാന":5261,"ഭര":5262,"കുറെ":5263,"##ന്മാരുടെ":5264,"സ്വതന്ത്ര":5265,"പ്രതിഷേധ":5266,"മ്യൂസിയ":5267,"എന്നായിരുന്നു":5268,"അലി":5269,"ഭംഗ":5270,"മെഡ":5271,"ജ്യ":5272,"നേരത്തെ":5273,"##യോജ":5274,"പാഠ":5275,"സ്ഥാപന":5276,"ചി":5277,"തന്‍റെ":5278,"നൃത്ത":5279,"ഫാമ":5280,"##ർജ":5281,"##ിച്ചാല്‍":5282,"ഇവരുടെ":5283,"##യുന്ന":5284,"##പ്പിൽ":5285,"##ുള്ളൂ":5286,"മനോ":5287,"നേടി":5288,"##ീകരണം":5289,"മതിയ":5290,"ഗുഹ":5291,"ഇംഗ്ലീഷ്":5292,"ആമ":5293,"24":5294,"വിലയ":5295,"ലേ":5296,"കുറേ":5297,"അക്ഷര":5298,"വിഭവ":5299,"##ിമി":5300,"എന്തോ":5301,"അവസര":5302,"നിർബന്ധ":5303,"ലക്ഷ്യം":5304,"ഡ്രൈ":5305,"കന്ന":5306,"##ാഡ":5307,"കുരു":5308,"പുരാതന":5309,"വെറുത":5310,"##തിഹ":5311,"ഗുണ":5312,"##ൊട്ട":5313,"പ്രയോഗ":5314,"മുഹമ്മദ്":5315,"##ബ്ബ":5316,"##ംഗല":5317,"##ുതി":5318,"ഇന്നത്തെ":5319,"നിർത്ത":5320,"ഒക്ട":5321,"##ുകയോ":5322,"##ൊന്നു":5323,"##ിപ്പിച്ച്":5324,"##ാടു":5325,"അതിജീവ":5326,"ആലോച":5327,"ജപ്പ":5328,"ചരിത്രം":5329,"താല":5330,"##കെ":5331,"##ഹത്യ":5332,"##ിക്കാല":5333,"##ീന്‍":5334,"##ിക്കുന്നതും":5335,"##നിത":5336,"##ിക്കോ":5337,"ഗോവ":5338,"ഇത്രയും":5339,"കുട്ടികള":5340,"പിന്തുട":5341,"വരുന്നു":5342,"വലുത":5343,"കല്യ":5344,"##ല്ല്":5345,"##മേഖല":5346,"പ്രാദേശ":5347,"സ്വാധീന":5348,"##പ്രകാരം":5349,"മുഴുവന്‍":5350,"നിന്നെ":5351,"വൃത്തിയ":5352,"##ിച്ചപ്പോൾ":5353,"മീറ്റ":5354,"##ിക്കാറുണ്ട്":5355,"ബുദ്ധിമുട്ട":5356,"ബോർ":5357,"റോഡ്":5358,"ശേഖര":5359,"വനം":5360,"അത്തരം":5361,"വിയ":5362,"##ിൾ":5363,"##തുമായ":5364,"അമ്മയുടെ":5365,"കാര്യമ":5366,"##ല്":5367,"##േഷന്‍":5368,"ആഹ":5369,"അതെ":5370,"##തായിരുന്നു":5371,"അതായത്":5372,"##ക്കാരുടെ":5373,"##മരം":5374,"പൊതുവ":5375,"ക്യാമറ":5376,"ബസ്":5377,"വീഡിയോ":5378,"എന്തിന":5379,"##നാഥ":5380,"വളർച്ച":5381,"തൊഴിലാള":5382,"സ്വദേശ":5383,"ലഭ്യമ":5384,"എന്നൊരു":5385,"##യുള്ളൂ":5386,"##്രയ":5387,"മനസ്സിലാക്ക":5388,"നോട്ട":5389,"നിയന്ത്രണ":5390,"ആക്രമണ":5391,"ഇടം":5392,"ഏതെങ്കിലും":5393,"ഗുരു":5394,"കരുതിയ":5395,"സ്ഥാനം":5396,"193":5397,"തലസ്ഥാന":5398,"വിനോദസഞ്ചാര":5399,"പിൻ":5400,"##ുകാര്‍":5401,"മീന":5402,"##ടുപ്പ്":5403,"ടോ":5404,"സവിശേഷ":5405,"നവം":5406,"##മായാണ്":5407,"##ന്റി":5408,"ക്രമ":5409,"##ാധിപത്യ":5410,"##ജെ":5411,"##ായുള്ള":5412,"##ാനാക":5413,"കൃഷിയ":5414,"##ിലെത്ത":5415,"ഫില":5416,"##തിക":5417,"##ിവര":5418,"##ാക്കിയത്":5419,"##ാദ്യ":5420,"അഗ":5421,"വിസ്ത":5422,"##റൽ":5423,"##തികൾ":5424,"വ്യവസ്ഥ":5425,"മുന്നില്‍":5426,"പശ്ചാത്ത":5427,"##ല്ലാതെ":5428,"മഞ്ഞു":5429,"ഇവിടുത്തെ":5430,"ബോട്ട":5431,"പ്രത്യക്ഷ":5432,"മരിച്ചു":5433,"അവസാനം":5434,"പറ്റിയ":5435,"ഗവേഷണ":5436,"##ഹായ":5437,"##ത്രേ":5438,"##ിക്കുമ്പോള്‍":5439,"തോമ":5440,"ഇവര്‍":5441,"എന്നിവയാണ്":5442,"##നാ":5443,"അടയാള":5444,"പട്ടിക":5445,"തടവ":5446,"മനോഹര":5447,"സുപ്ര":5448,"ഒരിക്കൽ":5449,"##ാർഡ":5450,"ചെയ്തിട്ട":5451,"അടങ്ങിയ":5452,"നില്‍ക്കുന്ന":5453,"യാത":5454,"എൽ":5455,"ശാസ്ത്രജ്ഞ":5456,"കൃത്യമായ":5457,"പുള്ള":5458,"##ക്കുറിച്ചും":5459,"ലഭിച്ചു":5460,"അതിനാൽ":5461,"##ിക്കല്‍":5462,"ചക്ര":5463,"##പറ":5464,"##ാധിക":5465,"പേട":5466,"##ിരിക്കും":5467,"##ാൻഡ":5468,"ആരോപ":5469,"ഓർമ്മ":5470,"##വര്‍ക്ക്":5471,"എട്ട":5472,"പട്ടണ":5473,"ആഭ":5474,"##പ്പെട്ട്":5475,"ചിത്രങ്ങൾ":5476,"ഗാന്ധി":5477,"അത്തര":5478,"വിപണ":5479,"##ർദ്ദ":5480,"വാര":5481,"അധികൃത":5482,"##ൊക്കെയ":5483,"ഈജി":5484,"##േത്":5485,"##ിക്കെ":5486,"സിംഹ":5487,"രണ്ടാമത്തെ":5488,"ദുരന്ത":5489,"ശല":5490,"മീഡിയ":5491,"മുറിവ":5492,"##000":5493,"##േള":5494,"ഉണ്ടായ":5495,"പറയും":5496,"##ടിയും":5497,"##മാധ്യമ":5498,"##സിലെ":5499,"##ർത്ഥ":5500,"##ാണെങ്കിൽ":5501,"##മായിട്ട":5502,"##സ്ക":5503,"##ില്ലേ":5504,"##ില്ലെന്ന്":5505,"പശുക്കള":5506,"##ദിവ":5507,"തുടർന്നു":5508,"##ക്കളുടെ":5509,"സാന്നിധ":5510,"##ൗണ്ട":5511,"വാസ":5512,"##ാസ്സ":5513,"വെട":5514,"നിലയിൽ":5515,"##േസമയം":5516,"##റില്‍":5517,"##ച്ചെ":5518,"നൽകുന്ന":5519,"##ബിൾ":5520,"##ിലേയ്ക്ക്":5521,"സിദ്ധ":5522,"##ാബ്":5523,"കൂട്ടുകാര":5524,"##ിപ്പിക്കുന്നത്":5525,"അൽ":5526,"##ബര്‍":5527,"പരാമ":5528,"##ുവിനെ":5529,"##ത്തിയത്":5530,"സന്ദര്‍ശ":5531,"##രിട":5532,"ക്യൂ":5533,"താൽ":5534,"21":5535,"##ുർ":5536,"##ണാക":5537,"##ബല":5538,"എഴുന്ന":5539,"##്യായ":5540,"##രുടെയും":5541,"കിലോ":5542,"ഉദ്യ":5543,"##ന്തി":5544,"വെളുത്ത":5545,"അക്കാദ":5546,"##ലു":5547,"##ൃഗ":5548,"ചുവന്ന":5549,"ഭർത്ത":5550,"##ുകാരുടെ":5551,"##ലക്ഷ":5552,"തിരഞ്ഞെടുക്ക":5553,"കണ്ടത്":5554,"ആശങ്ക":5555,"##നിര്‍":5556,"ലഭിച്ച":5557,"സമ്മത":5558,"ഹൗ":5559,"##നങ്ങള്‍":5560,"22":5561,"##ന്‍സ്":5562,"##പോലും":5563,"##ഹ്‌":5564,"##യൊക്കെ":5565,"##ിയുടെയും":5566,"പാത്ര":5567,"##യര്‍":5568,"ശരീരം":5569,"##ക്കിടയിൽ":5570,"##ിയം":5571,"പ്രണയം":5572,"##ിങ്":5573,"പ്രധാനമായും":5574,"ബിരുദ":5575,"ആം":5576,"##്യവും":5577,"തേടി":5578,"പകു":5579,"##കുട":5580,"##ക്കാൾ":5581,"##പ്പർ":5582,"##ാകാം":5583,"ഉൽപാദ":5584,"##ഗോ":5585,"##ത്തിര":5586,"കാഴ്ചകൾ":5587,"##കന":5588,"##ാണ്ഡ":5589,"##ചിത":5590,"അതോടെ":5591,"##സ്‌ല":5592,"കരുതി":5593,"ഏതാനും":5594,"##കുട്ടി":5595,"##ിമുഖ":5596,"ഇവയെ":5597,"##ിപ്പു":5598,"##ാർഡ്":5599,"അനേ":5600,"ഡിഗ്ര":5601,"##നാമ":5602,"ഉൾപ്പെടെ":5603,"പകര":5604,"വെട്ട":5605,"ഹിന്ദു":5606,"നിസ്സ":5607,"ഒപ്പ":5608,"ഇതിന്":5609,"##പ്ത":5610,"##ണ്ടായിരുന്നു":5611,"##ാറ്":5612,"##ടക്കം":5613,"##ഴിഞ്ഞു":5614,"##ിലുണ്ട്":5615,"നിറയെ":5616,"##ിച്ചിരിക്കുന്ന":5617,"പറയാം":5618,"കഷ്ട":5619,"ഗംഗ":5620,"##ിപ്പിക്കാൻ":5621,"ശക്തമായ":5622,"##ിള":5623,"വെയ":5624,"കുറിപ്പ":5625,"##ിറങ്ങ":5626,"വെളി":5627,"##ക്കാരെ":5628,"അക്രമ":5629,"##റുകൾ":5630,"നമ്പർ":5631,"##സിനെ":5632,"വിട്ടു":5633,"അസുഖ":5634,"വേര":5635,"സൂക്ഷ്മ":5636,"2019":5637,"വൈകുന്ന":5638,"##ക്കിൽ":5639,"##മാൻ":5640,"##ൗൺ":5641,"കോടി":5642,"##ുകള്‍ക്ക്":5643,"പരിസ്ഥിതി":5644,"സ്ഥലത്ത്":5645,"വിധേയ":5646,"എതി":5647,"ധര":5648,"##ല്‍ക്ക":5649,"ലള":5650,"സര്‍ക്ക":5651,"ദൂരം":5652,"##ടിച്ച്":5653,"##നിലെ":5654,"##ല്‍പ":5655,"മലബ":5656,"മാതൃക":5657,"##വൈ":5658,"##ഷ്പ":5659,"രാജ്യത്തെ":5660,"ഫോണ":5661,"അശ":5662,"വ്യവസ":5663,"പ്രധാനമന്ത്ര":5664,"കുതിര":5665,"##നത്തിൽ":5666,"ക്ലാസ്":5667,"ചോര":5668,"കോടതി":5669,"##ാണ്‌":5670,"##ിച്ചേര":5671,"പേരും":5672,"എന്‍":5673,"##ക്കൽ":5674,"സ്കൂൾ":5675,"സൗഹൃദ":5676,"ബോംബ":5677,"പ്രസവ":5678,"##ശിഷ്ട":5679,"പ്രാദേശിക":5680,"##ാപ്ര":5681,"##ാർട്ട":5682,"പുറം":5683,"##ിനുള്ളിൽ":5684,"കവി":5685,"ഭീകര":5686,"കമ്പനി":5687,"##പഞ്ച":5688,"##ൃഹ":5689,"##ായിരുന്നത്":5690,"സ്വകാര്യ":5691,"തുടക്കം":5692,"##വു":5693,"വലിയൊരു":5694,"നിലവിൽ":5695,"##ാര്‍ഥ":5696,"വേറ":5697,"നിത്യ":5698,"##ഴുതിയ":5699,"##ർഷം":5700,"ഗോത്ര":5701,"നെഞ്ച":5702,"##ക്കെതിരെ":5703,"ധൈ":5704,"ബാബ":5705,"ജോസ":5706,"പ്രശ്‌ന":5707,"വണ്ടി":5708,"മൊബൈ":5709,"മലനിര":5710,"കേൾക്ക":5711,"രീതി":5712,"ഇറങ്ങി":5713,"എന്നറിയപ്പെടുന്ന":5714,"##ുപോയി":5715,"കിടന്ന":5716,"##ാന്യം":5717,"അബ":5718,"പ്രതിനി":5719,"##ുന്നതായി":5720,"അതുകൊണ്ടുതന്നെ":5721,"##വരു":5722,"പ്രവാസ":5723,"നഗരം":5724,"##േറ":5725,"##്യമന്ത്ര":5726,"ജനസംഖ്യ":5727,"നാട്ടിൽ":5728,"സംരക്ഷണ":5729,"##ാളും":5730,"ലീ":5731,"കിടന്നു":5732,"##ിലേക്ക":5733,"സംഘം":5734,"##ിയത്":5735,"കുറയ":5736,"സംഘട":5737,"വിറ്റ":5738,"സാര":5739,"മദ്യ":5740,"സർവകലാശാല":5741,"ട്രെ":5742,"##േക്കാൾ":5743,"##ക്‌സ":5744,"അദ്":5745,"ഇസ്ല":5746,"##ിയിലും":5747,"##ിക്കുന്നില്ല":5748,"അറ്റ":5749,"അബ്ദ":5750,"ഫോൺ":5751,"പോസ്റ്റ്":5752,"പെൺകുട്ട":5753,"##മാണെന്ന്":5754,"##റിയാം":5755,"പർവ":5756,"##ണിവ":5757,"വിചാര":5758,"പങ്കുവച്ച":5759,"ആൾ":5760,"##ാങ്ക":5761,"നിറഞ്ഞു":5762,"##മെന്റ്":5763,"##പൂ":5764,"##ാറിന്റെ":5765,"##നട":5766,"##്മി":5767,"കച്ചവ":5768,"യാതൊരു":5769,"മയ":5770,"##ത്തെക്കുറിച്ച്":5771,"##ാക്":5772,"##ോത്സ":5773,"ചിറ":5774,"തീരുമാനിച്ചു":5775,"ഏർ":5776,"സുഗ":5777,"രചന":5778,"അവന":5779,"##ാമോ":5780,"192":5781,"കാൽ":5782,"##രൻ":5783,"##ത്തായി":5784,"സാമ്രാജ്യ":5785,"വള്ള":5786,"ശത്":5787,"നിഗ":5788,"ഓൺ":5789,"പത്തു":5790,"ഇന്ത്യന്‍":5791,"വിഡിയോ":5792,"വിദ്യാർത്ഥ":5793,"ഇടപെട":5794,"ഡയറ":5795,"##ിയർ":5796,"##ിലധികം":5797,"##പ്പന":5798,"##റ്റൻ":5799,"ഒരുക്കിയ":5800,"##ാകെ":5801,"##ുമ്പോഴാണ്":5802,"ഒട്ടും":5803,"യാഥ":5804,"##രുക":5805,"വിഭ":5806,"##സു":5807,"ചിലപ്പോൾ":5808,"കോഴിക്കോട്":5809,"മേഘ":5810,"തലമുറ":5811,"ചതുര":5812,"കശ":5813,"പൂജ":5814,"##ുമായുള്ള":5815,"കണ്ടെത്തിയത്":5816,"നേരിട്ട്":5817,"##ങ്ങളിലൊന്ന":5818,"##യോട്":5819,"##ോഗ":5820,"അടുക്കള":5821,"അത്ഭുത":5822,"##ക്രട്ട":5823,"##ാരംഭ":5824,"സമൂഹമാധ്യമ":5825,"രഹസ്യ":5826,"ഫെബ്ര":5827,"##ിക്കൊണ്ട്":5828,"##ടിയിൽ":5829,"പറയാൻ":5830,"സമാധാന":5831,"ഒതു":5832,"##േമ":5833,"##ണ്ണി":5834,"##മെന്റ":5835,"ആൽ":5836,"##മായിരുന്ന":5837,"##ുപയോഗ":5838,"##ാശയ":5839,"ഓടി":5840,"പീ":5841,"##ഹിത":5842,"##ക്കാട്":5843,"നിരോധ":5844,"റൂമ":5845,"ഷൂ":5846,"##ാഫ്":5847,"##ാവുന്നതാണ്":5848,"എയർ":5849,"ഗവ":5850,"##താം":5851,"മരുന്ന":5852,"പിന്നീട":5853,"##കളിലെ":5854,"##ച്ചില":5855,"നിലനിൽ":5856,"പിന്തുണ":5857,"കാത":5858,"സദ":5859,"##ിര്‍":5860,"##ുകളില":5861,"##ഞ്ചി":5862,"ശരാശ":5863,"സംബന്ധിച്ച":5864,"വിശാല":5865,"##ര്‍മ":5866,"മധുര":5867,"വരിക":5868,"എന്തു":5869,"ാം":5870,"കാര്യങ്ങള്‍":5871,"വിപ്ലവ":5872,"##സ്‌കാര":5873,"ലക്ഷ്യ":5874,"ജനുവരി":5875,"അഗ്നി":5876,"##സ്ഥല":5877,"യുടെ":5878,"##സ്ത്യ":5879,"ക്യാമ്പ":5880,"ചൈനീസ്":5881,"##ാൻഡ്":5882,"പലതും":5883,"##പ്രദ":5884,"##യില്ല":5885,"ദില്ല":5886,"നടുവ":5887,"മാര":5888,"##വഹ":5889,"##ുൽ":5890,"##വെന്ന്":5891,"##വിഷ":5892,"അഫ്":5893,"ദൗ":5894,"##ക്കളും":5895,"പ്രതിസന്ധ":5896,"##നാശ":5897,"##ാവില്ല":5898,"പിറ്റ":5899,"പതു":5900,"രാസ":5901,"താഴ്":5902,"##ത്തിലേക്കു":5903,"##ാശ്":5904,"പെണ്‍കുട്ട":5905,"ഐക്യ":5906,"ആഗോള":5907,"ഗവേഷകര്‍":5908,"മുസ്":5909,"##ൊന്നുമില്ല":5910,"പ്രധാനപ്പെട്ട":5911,"ബേ":5912,"ബീച്ച":5913,"##ിച്ചെടുക്ക":5914,"മുറ്റ":5915,"##ടുക്കും":5916,"ജീവിതത്തിൽ":5917,"അസ്വ":5918,"ഉറക്ക":5919,"##മില്ലാതെ":5920,"ഉദാഹരണ":5921,"എറ":5922,"ഇറ്റ":5923,"##പദ":5924,"എന്തായാലും":5925,"വീഴ":5926,"##ന്തരം":5927,"ചെയ്യാം":5928,"കൊലപാത":5929,"ഉണ്ടായിരുന്ന":5930,"പോരാട്ട":5931,"##ികളെയും":5932,"##പ്പൂ":5933,"പുറത്തിറങ്ങിയ":5934,"അദ്ഭുത":5935,"##ണിക്ക":5936,"കഥകൾ":5937,"ലഭിക്കുന്ന":5938,"സൈന്യ":5939,"##കരെ":5940,"രണ്ടാമ":5941,"മൃത":5942,"മണ്ഡ":5943,"##ത്‌":5944,"വേഗം":5945,"വക":5946,"##ാവകാശ":5947,"പരിപാല":5948,"ഉറങ്ങ":5949,"പോലീസ്":5950,"പച്ചക്കറ":5951,"രാജാവ":5952,"##ോം":5953,"മിണ്ട":5954,"ഭരണകൂ":5955,"പുക":5956,"##റായി":5957,"##ര്‍ഭ":5958,"##ാഹാര":5959,"പാർട്ട":5960,"ഘടക":5961,"റിപ്പോർട്ട്":5962,"##ജീവി":5963,"ഹരി":5964,"ആശ്രയ":5965,"കാർഷിക":5966,"ശക്തി":5967,"##ക്കുന്നുണ്ട്":5968,"##മ്മി":5969,"അവര്‍ക്ക്":5970,"വാര്‍ത്ത":5971,"കൊടുത്തു":5972,"വിധം":5973,"വാല":5974,"ശു":5975,"##ഴ്സ":5976,"സെക്രട്ട":5977,"##മ്പു":5978,"##പ്പെടുകയും":5979,"മടങ്ങ":5980,"കർഷകർ":5981,"##ാകട്ടെ":5982,"തനിക്ക്":5983,"##നങ്ങളും":5984,"ചെയ്തിര":5985,"മേൽ":5986,"ചെയ്യാന്‍":5987,"##റാ":5988,"##ക്കുട്ട":5989,"വിശ്രമ":5990,"##കള്‍ക്ക്":5991,"##ുവരുന്ന":5992,"ബാക്കി":5993,"##വാര":5994,"ഇവിടം":5995,"വിശ്വാസം":5996,"ഔദ്യോഗ":5997,"ചെല്ല":5998,"അടച്ച":5999,"അഡ":6000,"മരിച്ച":6001,"സത്യം":6002,"അരു":6003,"##ൂരിലെ":6004,"##യെയും":6005,"##ബെ":6006,"##ർദ":6007,"##ുമെന്നും":6008,"പിന്നാലെ":6009,"ഗൂ":6010,"##പേ":6011,"##ന്തോ":6012,"തിരിഞ്ഞു":6013,"പാർട്ടി":6014,"സങ്കട":6015,"ഉദ്ദേശ":6016,"##ങ്ങളിലാണ്":6017,"##നത്തിന്":6018,"ഇക്കാര":6019,"പ്രസ്ഥാന":6020,"ചാല":6021,"##ങ്കാര":6022,"ഇന്ദ":6023,"മനുഷ്യര":6024,"ത്ത":6025,"##ിറങ്ങിയ":6026,"##ാകാര":6027,"നിര്‍മ":6028,"##ന്മാരും":6029,"ലക്ഷ്യമ":6030,"##ള്ളൂ":6031,"##ന്ദര്യ":6032,"സേന":6033,"##ങ്ങളെല്ലാം":6034,"മുപ്പ":6035,"പോഷ":6036,"പതിയെ":6037,"അല്പ":6038,"##ചേ":6039,"##റ്റും":6040,"##ണങ്ങള്‍":6041,"##മര":6042,"##തുണ്ട്":6043,"##ംബർ":6044,"സ്ര":6045,"പോകുന്നത്":6046,"##ക്കൊള്ള":6047,"ചില്ല":6048,"സന്തോഷം":6049,"##മായിരിക്കും":6050,"##റിലെ":6051,"പോർ":6052,"##ിയ്ക്ക":6053,"പരിസര":6054,"അടിമ":6055,"ചാര":6056,"ചേർത്ത":6057,"ക്രൂര":6058,"നോവൽ":6059,"കലാപ":6060,"ഇങ്ങനെയ":6061,"##ുന്നതിന്റെ":6062,"പാട്ട്":6063,"##മിക":6064,"ശരിക്കും":6065,"കിട്ടി":6066,"പണ്ട":6067,"##ത്താവ":6068,"തുടങ്ങിയത്":6069,"ഇത്തവണ":6070,"കൊന്ന":6071,"##േക്കാം":6072,"##ിക്കുന്നതിന്":6073,"ഡൽഹ":6074,"തുല":6075,"ശാര":6076,"##ക്കിങ്":6077,"##വിൽ":6078,"പ്രദ":6079,"അതില":6080,"##ിപ്പോ":6081,"എങ്ങനെയ":6082,"പ്രദേശം":6083,"ഷോ":6084,"##ാറ്റി":6085,"അതാണ്":6086,"അഭ്യ":6087,"നടപ്പില":6088,"##ാക്കും":6089,"##തുട":6090,"##ഗര":6091,"##ിച്ചിട്ടില്ല":6092,"##യ്ക്കിടെ":6093,"ജൂലൈ":6094,"പ്ലാസ്റ്റിക്":6095,"പന്ത":6096,"##സംഘ":6097,"മാറ്റം":6098,"23":6099,"പോസ്റ്റ":6100,"##കൃഷ്ണ":6101,"##ഥം":6102,"ബന്ധം":6103,"സന്ധ":6104,"##ിമാന":6105,"സ്ട്ര":6106,"##മാണു":6107,"മുഖ്യമന്ത്ര":6108,"നിമിഷം":6109,"വിമർശ":6110,"അതൊരു":6111,"##ുകൂല":6112,"അരി":6113,"കഠ":6114,"സന്":6115,"വിശ്വ":6116,"പ്രതിഭ":6117,"ചങ്ങ":6118,"അസാധ":6119,"##വിശ്യ":6120,"##മായിര":6121,"##േം":6122,"വേർ":6123,"പ്രായം":6124,"##ുകളിലൂടെ":6125,"ബഹുമ":6126,"ഉപയോഗിക്കുന്ന":6127,"പശ്ചാത്തല":6128,"##മുണ്ടായിരുന്നു":6129,"അന്നു":6130,"നീര":6131,"തീയ":6132,"##ഗ്ന":6133,"വിസ്മ":6134,"ഒരാള്‍":6135,"നിയമം":6136,"കൺ":6137,"മായ":6138,"കിട്ടുന്ന":6139,"വരുത്ത":6140,"യന്ത്ര":6141,"മീൻ":6142,"ഫേസ്":6143,"വച്ചു":6144,"സബ്":6145,"അതേസമയം":6146,"വേണമ":6147,"നേരിട്ട":6148,"മൂന്നാം":6149,"എന്നിട്ടും":6150,"ചേർത്ത്":6151,"ഭര്‍ത്ത":6152,"കണ്ടുപിട":6153,"##ൂരിൽ":6154,"മുന്നോട്ട":6155,"##ോഭ":6156,"വിത്ത":6157,"##ിട്ടുള്ളത്":6158,"യഹ":6159,"##്വര":6160,"യൂണിവ":6161,"##ജൻ":6162,"60":6163,"##ിലേറെ":6164,"##ുകൊണ്ടാണ്":6165,"##െയ്‌":6166,"26":6167,"##ക്ട്ര":6168,"##ഹം":6169,"നാട്ടിലെ":6170,"വിവരം":6171,"അച്ഛന്റെ":6172,"##വർത്ത":6173,"##ുകൂട്ട":6174,"ഉത്തരവാദ":6175,"##ൊരാള":6176,"അവയെ":6177,"മിശ്ര":6178,"കുട്ടികള്‍":6179,"##ണ്യ":6180,"##ില്ലായിരുന്നു":6181,"ആളുകള്‍":6182,"##ലാണ്":6183,"##ുകൊടുക്ക":6184,"പിടിച്ച്":6185,"പ്രത്യേകം":6186,"കുര":6187,"ചെയ്തിരുന്നു":6188,"വൈറസ്":6189,"##രംഗ":6190,"##ാറ്റ്":6191,"ഗ്രാം":6192,"##ൃദ്ധ":6193,"നട്ട":6194,"##പ്പേ":6195,"ചൂണ്ടിക്ക":6196,"വട്ട":6197,"##ര്‍ക്ക്":6198,"ശ്രദ്ധേയ":6199,"##പോയി":6200,"##ചരിത്ര":6201,"##ിച്ചതും":6202,"അവസരം":6203,"യൂണി":6204,"##ോതി":6205,"##ദേവ":6206,"സെപ്റ്റ":6207,"##ഖ്യാന":6208,"എനിക്കു":6209,"27":6210,"പരമാവ":6211,"അച്ഛന":6212,"##ധാര":6213,"##‌‌":6214,"##ൈഡ":6215,"ഗവേഷകർ":6216,"2020":6217,"വിറ":6218,"വെബ്സൈ":6219,"##െല്ല":6220,"നടപട":6221,"ബാഗ":6222,"സയ":6223,"##ലുകള്‍":6224,"##ാകാശ":6225,"##ുന്നതിൽ":6226,"##ൈഡ്":6227,"##ത്തീ":6228,"വ്യവസായ":6229,"ഉത്തരം":6230,"ചെയ്യുക":6231,"##സിറ്റ":6232,"പൂർണ്ണ":6233,"എങ്ങനെയാണ്":6234,"കസ":6235,"##െത്തി":6236,"##സ്കാരം":6237,"##റാണ്":6238,"##ാണല്ലോ":6239,"ബ്രിട്ടീഷ":6240,"കൊട്ടാര":6241,"##ാമെന്ന്":6242,"കടൽ":6243,"താരതമ":6244,"ആസ്ഥാന":6245,"##രായി":6246,"വീണു":6247,"ആറു":6248,"##ിസ്":6249,"റിപ്പോര്‍":6250,"ഇനം":6251,"##ാക്കുന്നത്":6252,"രാജ്യം":6253,"ആചാര":6254,"ശക്തിയ":6255,"##ൗണ":6256,"പ്രവിശ്യ":6257,"കൂട്ടി":6258,"##െന്നോ":6259,"##രമ":6260,"##കരും":6261,"താമസം":6262,"##ുണ്ടാകും":6263,"കയറ്റ":6264,"##ാക്ട":6265,"##പ്പെടും":6266,"ഡിസ":6267,"##വിട്ടു":6268,"##ഭാവന":6269,"ഇള":6270,"അല്ലെങ്കില്‍":6271,"നിശ":6272,"##ക്കിറ":6273,"ഡേ":6274,"പോകും":6275,"##ീർഘ":6276,"ഉപ്പ":6277,"##മായത്":6278,"##പെട്ട":6279,"യൂറോപ":6280,"##ജ്യ":6281,"വിദ്യാഭ്യാസം":6282,"ഏത്":6283,"ഓർ":6284,"##ുവും":6285,"##ടാ":6286,"പരമാവധി":6287,"പ്രതിഷ്ഠ":6288,"##ുടി":6289,"ചുമതല":6290,"##ൂണ":6291,"##ദിന":6292,"##ന്നെയാണ്":6293,"##ിനോ":6294,"അനേകം":6295,"ഇനിയ":6296,"തിരുവനന്തപുരം":6297,"##ാനിയ":6298,"മുന്നോട്ടു":6299,"കയ്യിൽ":6300,"റോമ":6301,"##ിപ്പിച്ചത്":6302,"##ക്ട്":6303,"സംരംഭ":6304,"ചേർന്നു":6305,"##വില":6306,"പാൽ":6307,"സീസ":6308,"##ങ്ങളോ":6309,"##ോണിയ":6310,"ചാട":6311,"കാണാന":6312,"നിറം":6313,"പോകാൻ":6314,"##ാവശ്യം":6315,"അറിയപ്പെടുന്നത്":6316,"തേടിയ":6317,"##വ്യവസ്ഥ":6318,"സര്‍ക്കാര്‍":6319,"ടീമ":6320,"##ര്‍ക്കും":6321,"മാർച്ച്":6322,"##ലിലെ":6323,"##ക്കളെ":6324,"വിദഗ്ധ":6325,"##െയില്‍":6326,"പിന്നെയും":6327,"തേട":6328,"വിവരങ്ങൾ":6329,"എടുത്ത്":6330,"നും":6331,"##ിക്കുവ":6332,"നില്‍ക്ക":6333,"പന":6334,"##ജല":6335,"##ക്കണക്കിന്":6336,"2011":6337,"സൊ":6338,"2018":6339,"നിര്‍മ്മ":6340,"##ുഡ്":6341,"##കനായ":6342,"ആയുധ":6343,"വിശദീകര":6344,"എഫ്":6345,"ഏക്ക":6346,"##ാദം":6347,"എഡി":6348,"##വിശ്വാസ":6349,"പല്ല":6350,"##ിക്കുള്ള":6351,"##ാതിരുന്ന":6352,"##ിക്കപ്പെടുന്ന":6353,"യൂറോപ്പ":6354,"ജാതി":6355,"അവശേഷ":6356,"സുരക്ഷിത":6357,"##്ഞ":6358,"##ിഷ്":6359,"പ്രാപ":6360,"##തുകൊണ്ട്":6361,"##ര്‍ണ":6362,"വളരെയ":6363,"ഇസ്ര":6364,"ഫോർ":6365,"##സ്‍":6366,"പലയിട":6367,"ഏതോ":6368,"കൊല്ലം":6369,"മരം":6370,"##റിയും":6371,"പോലീസ":6372,"ഓര്‍മ":6373,"##ികളിലും":6374,"ജോൺ":6375,"ജീവിതത്തിന്റെ":6376,"##സേന":6377,"##ിക്കര":6378,"മാർക്ക":6379,"ആവേശ":6380,"##വേള":6381,"##സാഹ":6382,"##ഭരണ":6383,"കഥകള":6384,"അവി":6385,"##ിക്കപ്പെടുന്നു":6386,"##ന്‍റ":6387,"നാളെ":6388,"ശേഷമാണ്":6389,"##ബിള":6390,"##യേ":6391,"##ായിരം":6392,"അങ്ങനെയാണ്":6393,"ലണ്ട":6394,"##ര്‍ത്തി":6395,"##ടിയുടെ":6396,"പങ്കെടുക്ക":6397,"ശാസ്ത്രീയ":6398,"പരു":6399,"##ാങ്":6400,"ആൺ":6401,"പോയത്":6402,"##സമ്മ":6403,"##ചക":6404,"ഏപ്രിൽ":6405,"ശരിയ":6406,"കഠിന":6407,"##ാചാര":6408,"##ിടയില്‍":6409,"തിക":6410,"ഉള്ളത്":6411,"##യാട":6412,"##്പ്പ":6413,"##െയർ":6414,"തുക":6415,"ജീവൻ":6416,"കാത്തിര":6417,"##ിപ്പുറ":6418,"##കാര്യം":6419,"മുന്നോട്ട്":6420,"##ൈസ":6421,"##റിയാതെ":6422,"##ൊപ്പ":6423,"തെക്ക":6424,"പുറമേ":6425,"ഓഗ":6426,"##ികമായ":6427,"##ംഗം":6428,"പ്രസിഡന്റ്":6429,"ഇമ":6430,"കോളേജ്":6431,"പിറന്ന":6432,"##േഴ്സ്":6433,"##വാഹ":6434,"ഇതാണ്":6435,"നഷ്ടപ്പെട്ട":6436,"യുദ്ധം":6437,"ഉത്പാദ":6438,"##ക്കാരും":6439,"##ചന്ദ്ര":6440,"കൊച്ചു":6441,"സംസ്കാര":6442,"##ുണ്ടോ":6443,"##ണാകു":6444,"35":6445,"വെറുതെ":6446,"##ർല":6447,"സുന്ദ":6448,"കുടുംബം":6449,"##മാകും":6450,"ആകര്‍ഷ":6451,"പിറ്റേ":6452,"അക്കാലത്ത്":6453,"ലോകത്ത്":6454,"ആൻഡ്":6455,"ഞെട്ട":6456,"നീണ്ടു":6457,"അപ്പോള്‍":6458,"ഓസ്ട്ര":6459,"##തയെ":6460,"##ണോ":6461,"##എം":6462,"##ക്ക്‌":6463,"കൊണ്ടാണ്":6464,"##േക്കാള്‍":6465,"##ാന്റ":6466,"കടന്ന്":6467,"ദുബ":6468,"##താവ്":6469,"##റിഞ്ഞ്":6470,"ആരംഭിച്ചു":6471,"##ാമെന്ന":6472,"അഭിമുഖ":6473,"മണിക്കൂർ":6474,"##തില്‍":6475,"##ത്യം":6476,"പരമ്പരാഗത":6477,"ഭൗ":6478,"##ഴും":6479,"കേട്ട്":6480,"വലിപ്പ":6481,"യൂണിയ":6482,"ഭ്ര":6483,"##ട്ടില്‍":6484,"##ിനീയ":6485,"##ിച്ചിട്ടുള്ള":6486,"ദീർഘ":6487,"##ണമെന്നും":6488,"സൗന്ദര്യ":6489,"ശരാശരി":6490,"##വംശ":6491,"വല്ലാത്ത":6492,"ആറ്":6493,"വെല്ലു":6494,"##ാസ്‌":6495,"പുരോഗ":6496,"ലോഹ":6497,"##ിയോടെ":6498,"##ങ്ങളോട്":6499,"##ുകൂടിയ":6500,"##ൂതിര":6501,"##ാനിലെ":6502,"എന്നോട്":6503,"##ശ്വര":6504,"നിശ്ചയ":6505,"ബാക്കിയ":6506,"##ഷണ":6507,"ആത്മഹത്യ":6508,"പുത്ര":6509,"മെച്ച":6510,"സാഹസിക":6511,"പട്ടാള":6512,"വകുപ്പ്":6513,"ഭേദ":6514,"##ികൊ":6515,"##ത്രം":6516,"##ാകുന്നത്":6517,"പരാമർശ":6518,"എറണാകു":6519,"റ്":6520,"മകൻ":6521,"##ിരുത്ത":6522,"നിക്ഷേപ":6523,"##വസ്തു":6524,"##ുകളായി":6525,"അതോ":6526,"സമ്പന്ന":6527,"കാലാവസ്ഥാ":6528,"കേള്‍ക്ക":6529,"ഡിസംബർ":6530,"നടന്നത്":6531,"ഇന്നലെ":6532,"##ൊഴുക":6533,"##ാവാം":6534,"ശവ":6535,"പ്രദർശ":6536,"##മുള":6537,"##്യൂണിസ്റ്റ്":6538,"പുറത്തെ":6539,"ചിലർ":6540,"മുത്തശ്ശ":6541,"##ത്തിലായിരുന്നു":6542,"കഴിയില്ല":6543,"പൂര്‍ണ":6544,"മാലിന്യ":6545,"നാണ":6546,"##പ്പെടുത്തുന്ന":6547,"പുത":6548,"മൂട":6549,"പ്രശസ്തമായ":6550,"ഇവിടത്തെ":6551,"അക്":6552,"ഓണ":6553,"##ിയുമായി":6554,"##ിവന്ന":6555,"കടല്‍":6556,"##ൊക്കെയോ":6557,"ആലപ്പുഴ":6558,"മരുഭൂമ":6559,"##വകുപ്പ":6560,"##പാ":6561,"ആയിരുന്ന":6562,"മലിന":6563,"കരയ":6564,"##ുന്നതോടെ":6565,"ഇൻസ്റ്റ":6566,"പന്ന":6567,"മനസ്സ്":6568,"രണ്ടുപ":6569,"ആവി":6570,"##ഞ്ചു":6571,"##പര്യ":6572,"##ന്യം":6573,"##ാമം":6574,"##ിപ്പോയ":6575,"##ഴുതി":6576,"ജീവിക്കുന്ന":6577,"##ികളുടെയും":6578,"വ്യത്യാസ":6579,"ഡോള":6580,"വിഷമ":6581,"##രാണ്":6582,"ശീല":6583,"##തിർന്ന":6584,"ജനാധിപത്യ":6585,"അറിയപ്പെടുന്നു":6586,"സച്ച":6587,"അപൂർവ":6588,"ചര്‍ച്ച":6589,"##വത്":6590,"##ങ്ങളുള്ള":6591,"##ിവാസ":6592,"അന്താരാഷ്ട്ര":6593,"##ശേഖ":6594,"##ുവീ":6595,"##ന്തു":6596,"നിർമാണ":6597,"പതിവ്":6598,"##ര്‍ത്ത്":6599,"##ഡിൽ":6600,"##ുറപ്പ":6601,"നല്‍കി":6602,"പ്രക":6603,"##ക്ഷം":6604,"സാധ്യമ":6605,"ജനങ്ങൾ":6606,"പിടികൂ":6607,"സ്ഥിതിചെയ്യുന്ന":6608,"സുര":6609,"സഞ്ചാരികളെ":6610,"ദയ":6611,"ഡിഗ്രി":6612,"##െടുത്ത്":6613,"##ബരി":6614,"##ോളജി":6615,"സഹായം":6616,"ലൂ":6617,"അടുത്ത്":6618,"ജർമ":6619,"##ോറിയ":6620,"മോള":6621,"##വിഭാഗ":6622,"സാമൂഹ്യ":6623,"##െയായി":6624,"ചട്ട":6625,"അമ്മയും":6626,"##ിസിന":6627,"പുള":6628,"##ിപ്പോക":6629,"ശ്രീല":6630,"അന്വേഷണ":6631,"28":6632,"തമ്പ":6633,"##മിത":6634,"കുറയ്ക്ക":6635,"പശ്ചിമ":6636,"##ാക്രമ":6637,"##മെന്ന്":6638,"##ാണെങ്കില്‍":6639,"വർദ്ധ":6640,"##ര്‍പ്പ":6641,"പറമ്പ":6642,"ബുക്ക്":6643,"##തര":6644,"##സീ":6645,"തീർത്ത":6646,"അപരി":6647,"കിള":6648,"ചിരിച്ചു":6649,"ചിത":6650,"##ോബർ":6651,"പ്രവർത്തനങ്ങൾ":6652,"നടക്കുന്നത്":6653,"തുള്ള":6654,"##റ്റു":6655,"എത്രയോ":6656,"നാഷണൽ":6657,"##ക്ല":6658,"ബംഗ്ല":6659,"മിന":6660,"##മാരുടെ":6661,"##ുവന്നു":6662,"പേരില്‍":6663,"##ുന്നതിനും":6664,"എങ്ങ":6665,"എന്നിവയും":6666,"ലഭിക്കും":6667,"##സിസ്":6668,"ഗർഭ":6669,"##രോഗ":6670,"ഇട്ട":6671,"തിയ":6672,"##ിലെത്തി":6673,"##ിലേക്കാണ്":6674,"മാതാപിതാക്കള":6675,"റിയ":6676,"ശങ്കര":6677,"##തിയാണ്":6678,"തുടർച്ച":6679,"##ാട്ടി":6680,"##സിദ്ധ":6681,"##ക്ടർ":6682,"മേഖലയിൽ":6683,"##ിയോട്":6684,"##യായും":6685,"റെക്ക":6686,"കാര്യത്തിൽ":6687,"പ്രചാര":6688,"കാണിച്ചു":6689,"ആനന്ദ":6690,"കർഷക":6691,"മുകളില്‍":6692,"സാറ":6693,"##മാറ്റ":6694,"##ിച്ചോ":6695,"ചെലവഴ":6696,"അഫ്ഗ":6697,"കെട്ടിയ":6698,"ന്റെ":6699,"നേതൃത്വത്തിൽ":6700,"##റ്റുകൾ":6701,"വളരുന്ന":6702,"മൃതദേഹ":6703,"തായ":6704,"കാണപ്പെടുന്ന":6705,"ഫ്രാൻ":6706,"ഒരിക്കല്‍":6707,"പ്രമേ":6708,"കൊണ്ടുപോക":6709,"##റിവ":6710,"ടെലി":6711,"നാസ":6712,"##ഴല":6713,"വാങ്ങിയ":6714,"പന്ത്ര":6715,"നാശ":6716,"മുന്നറിയ":6717,"എല":6718,"എക്സ":6719,"മംഗ":6720,"##ാലൻ":6721,"##ാധികാര":6722,"പ്രതിനിധ":6723,"ചാവ":6724,"##ഡിന്റെ":6725,"കിലോമീറ്റര്‍":6726,"ഓപ്പറ":6727,"191":6728,"##രാഷ്ട്ര":6729,"##കത്ത്":6730,"##ാറെ":6731,"##ന്മാര്‍":6732,"കേരളം":6733,"മുന്‍പ്":6734,"##ാനാവാത്ത":6735,"എത്തുന്ന":6736,"വിഭാഗം":6737,"45":6738,"ധന":6739,"താമസിക്കുന്ന":6740,"വാണി":6741,"##ശയം":6742,"##യോജന":6743,"തണുത്ത":6744,"ചെമ്പ":6745,"കൊണ്ടുവര":6746,"സംവിധ":6747,"##തെ":6748,"##ഷധ":6749,"അൽപ":6750,"പരിശീലനം":6751,"അന്യ":6752,"##റ്റർ":6753,"മുദ്ര":6754,"##േഴ്‌":6755,"പിന്നിൽ":6756,"പ്രതികര":6757,"ഇന്റർ":6758,"##േഷന":6759,"##ഭൂമി":6760,"##ുൾ":6761,"##റിന്":6762,"മുയ":6763,"അറിയിച്ചു":6764,"മഹാമ":6765,"അവിടത്തെ":6766,"##്രദ":6767,"സംഭാവന":6768,"##ടുത്തുള്ള":6769,"ക്ലാസ്സ":6770,"##െത്തുന്ന":6771,"ചതുരശ്ര":6772,"ഫെബ്രുവരി":6773,"അറിയപ്പെടുന്ന":6774,"തൃശ":6775,"ജാത":6776,"തുടര്‍ന്ന്":6777,"##ുമൂ":6778,"##മ്പര്യ":6779,"ഉണ്ണ":6780,"##ായിക":6781,"വേല":6782,"മാവ":6783,"പ്രദേശത്ത്":6784,"ഇണ":6785,"ഇസ്‌ല":6786,"##ൂദ":6787,"പോള":6788,"##െയ്ത":6789,"##ുവെച്ച":6790,"ഖന":6791,"##ാലാണ്":6792,"##ാടും":6793,"പരീക്ഷണ":6794,"##രേഖ":6795,"നവംബർ":6796,"##ിലേക്കെ":6797,"##യ്ക്കായി":6798,"ധാരണ":6799,"താന്‍":6800,"##ത്തായ":6801,"എന്നൊക്കെ":6802,"കഴിയാത്ത":6803,"പശു":6804,"##യളവ":6805,"എത്തിച്ചേര":6806,"മിക്കവ":6807,"തോമസ്":6808,"വ്യക്തിയ":6809,"##ർമാർ":6810,"സീ":6811,"##്വി":6812,"##ിക്കേണ്ടി":6813,"ഉയര്‍ന്ന":6814,"സ്വപ്നം":6815,"ഒക്ടോബർ":6816,"##വിക":6817,"തടസ്സ":6818,"ഗ്രാമം":6819,"അജ":6820,"രീത":6821,"##നയ":6822,"##റിനെ":6823,"ഒരുക്ക":6824,"ഇടയ്ക്കിടെ":6825,"പണ്ട്":6826,"ആഗ്രഹം":6827,"ചര":6828,"##ർബ":6829,"പ്രയാസ":6830,"ഗ്രൂപ്പ":6831,"ബിസിന":6832,"വ്യതിയ":6833,"കെട്ടി":6834,"സ്വന്തമായി":6835,"പാകിസ്ത":6836,"!​":6837,"അടുപ്പ":6838,"##ൈറ്റ്":6839,"വാക്കുകൾ":6840,"കൊമ്പ":6841,"എന്താ":6842,"ചടങ്ങ":6843,"സൈക്കി":6844,"ഞെ":6845,"##ൊക്കെയാണ്":6846,"കാള":6847,"##േണ":6848,"##ാക്കുന്നു":6849,"കഴു":6850,"##വിതാം":6851,"തുമ്പ":6852,"##പ്രകാശ":6853,"##ക്കാരൻ":6854,"നല്ലത്":6855,"മുള്ള":6856,"##വായ":6857,"##െയിം":6858,"ഇഷ്ടം":6859,"അനുയോജ":6860,"അറബ":6861,"പ്രാധാന്യ":6862,"അളവ്":6863,"##ത്താൽ":6864,"##പ്പെട്ടിരുന്നു":6865,"അനുഭവം":6866,"തുര":6867,"##റ്റിയ":6868,"##ങ്ങള്‍ക്കും":6869,"രീതിയില്‍":6870,"##ോക്ക്":6871,"##ുവിന്":6872,"ചാണ":6873,"##ത്തോട":6874,"ചെന്ന്":6875,"##ങ്ങളിലായി":6876,"കൊലപാതക":6877,"##പ്രതി":6878,"പ്രാധാന്യം":6879,"കർണ":6880,"മുതിർന്ന":6881,"ഇരുന്നു":6882,"##ിക്കുകയുണ്ടായി":6883,"##്മെന്റ്":6884,"കുടു":6885,"പുരസ്കാരം":6886,"സാധാരണയായി":6887,"##നീയ":6888,"##ത്തോട്ട":6889,"കോണ്‍":6890,"അക്കാദമി":6891,"സീറ്റ":6892,"##ാക്കെ":6893,"തരത്തിലുള്ള":6894,"പിള്ള":6895,"എന്നിവർ":6896,"അടുത്തുള്ള":6897,"സഞ്ചാരികൾ":6898,"അതിലെ":6899,"പിതാവ":6900,"അമേരിക്കയിലെ":6901,"##സമയ":6902,"കനത്ത":6903,"##ഫോട":6904,"പതുക്കെ":6905,"ശാരീര":6906,"##വാള":6907,"മുതലായ":6908,"അസ്വസ്ഥ":6909,"അംബ":6910,"ഇങ്ങ":6911,"ഏഴു":6912,"തിമി":6913,"ധാത":6914,"##കരണം":6915,"നീക്ക":6916,"വാതില":6917,"##ാഷ്":6918,"കാലത്തെ":6919,"തമ":6920,"##ഴുത്ത":6921,"കന്യ":6922,"##പൂര്‍":6923,"അനുസരിച്ച്":6924,"##േറ്റു":6925,"തികച്ച":6926,"പെയ":6927,"നല്ലൊരു":6928,"ഇരട്ട":6929,"യോജ":6930,"##ൊറ്റ":6931,"മുട":6932,"സൗന്ദര":6933,"ഭഗവ":6934,"##കളില":6935,"ആരോ":6936,"##ഴുക്ക":6937,"പോഷക":6938,"ഇടുക്ക":6939,"മോഡ":6940,"വടക്കു":6941,"##സേ":6942,"##സൗ":6943,"##ഷ്യൻ":6944,"ചിത്രീകര":6945,"ചൂട്":6946,"ഡോക്ടർ":6947,"വെബ്സൈറ്റ്":6948,"ലഭിച്ചത്":6949,"##പ്രവര്‍ത്ത":6950,"##ഹര":6951,"ജൂൺ":6952,"നിർമ്മാണ":6953,"##നിന്നുള്ള":6954,"വയസ്സിൽ":6955,"പാക്ക":6956,"വേഷ":6957,"##ിരാകാശ":6958,"##ിനായി":6959,"നിങ്ങള":6960,"##ാഞ്ഞ":6961,"##രെയും":6962,"##ര്‍ത്തിയ":6963,"വ്യാപാര":6964,"അവശിഷ്ട":6965,"തിരുവിതാം":6966,"നല്":6967,"സ്വർ":6968,"ചെടി":6969,"ഉയരം":6970,"തിരിച്ചറിഞ്ഞ":6971,"ഔദ്യോഗിക":6972,"500":6973,"##സ്തി":6974,"##ുണ്ടെങ്കിലും":6975,"ആരെയും":6976,"മനസ്സില്‍":6977,"അതിനുള്ള":6978,"വിലയിരുത്ത":6979,"ഐതിഹ":6980,"##ോദ്യ":6981,"##കളായി":6982,"##ണ്ഠ":6983,"ചേര്‍ന്ന്":6984,"അറിയില്ല":6985,"മനുഷ്യന്റെ":6986,"മലയാളം":6987,"##േണ്ടത":6988,"നിലനി":6989,"പ്രതിമ":6990,"പങ്കാള":6991,"വൃത്ത":6992,"താള":6993,"കൈകാര്യം":6994,"കണ്ണുകൾ":6995,"പുഞ്ച":6996,"ജീവിതത്തിലെ":6997,"##ത്തിനുള്ളിൽ":6998,"പ്രസിഡന്റ":6999,"ഇസ്ലാമ":7000,"അവധ":7001,"വീട്ടിലേക്ക്":7002,"ബഹിരാകാശ":7003,"##ിലെത്തിയ":7004,"വൃക്ഷ":7005,"ശത്രു":7006,"##ൊല":7007,"##ാവു":7008,"##ുന്നതെന്ന്":7009,"##ക്കെതിര":7010,"അരിക":7011,"നിരാശ":7012,"തന്നെയായിരുന്നു":7013,"##വറ":7014,"പുറത്തേക്ക്":7015,"വികാര":7016,"ചുറ്റുമുള്ള":7017,"ഫോറ":7018,"##​​":7019,"ഉപയോഗിക്കുന്നു":7020,"##ല്ലെ":7021,"മലമ":7022,"ജ്യോതി":7023,"ഒന്നര":7024,"ശ്രമം":7025,"പാള":7026,"പത്മ":7027,"മെയ്":7028,"ഉപയോഗിക്കുന്നത്":7029,"##ിക്കുമെന്ന്":7030,"ഫുട":7031,"##പതി":7032,"##ചനം":7033,"##ങ്കിൽ":7034,"നിർദ്ദേശ":7035,"##ുകളുണ്ട്":7036,"##ാതം":7037,"##ിക്കാവുന്ന":7038,"പുഷ്പ":7039,"യാത്രകൾ":7040,"വെളിച്ചം":7041,"ഇൗ":7042,"##വൃ":7043,"ഔഷധ":7044,"ഇരുന്ന":7045,"പ്രത്യേകിച്ച്":7046,"വില്‍":7047,"##ീയം":7048,"കൊവിഡ്":7049,"അർത്ഥ":7050,"##ാണുള്ളത്":7051,"##്യങ്ങൾ":7052,"##ിനൊപ്പം":7053,"നിരീക്ഷണ":7054,"രമ":7055,"##ജാല":7056,"എന്നാലും":7057,"സാധിക്കും":7058,"കിഴക്കൻ":7059,"കാക്ക":7060,"ചാർ":7061,"##സല":7062,"##ീകൃത":7063,"##ിയായിരുന്ന":7064,"##ിനിൽ":7065,"നീക്കം":7066,"ലിങ്ക്":7067,"##ിനറി":7068,"മോശ":7069,"നിങ്ങളെ":7070,"ഒക്ക":7071,"അവഗണ":7072,"റീ":7073,"##യാൾ":7074,"##മിന":7075,"##്വാന":7076,"കുഞ്ഞിനെ":7077,"ഉന്നത":7078,"##ക്കുകയും":7079,"##വരിൽ":7080,"ചെയ്‍":7081,"##ോഗ്":7082,"വിമാനത്താവ":7083,"തികച്ചും":7084,"##ാമായിരുന്നു":7085,"ഘടന":7086,"വീര":7087,"കുട്ടിക്കാല":7088,"യുഎ":7089,"പ്രചോദ":7090,"29":7091,"യെ":7092,"നിർത്തി":7093,"കൃത":7094,"##ുണ്ടാകുന്ന":7095,"തീരുമാനം":7096,"പൊതുവേ":7097,"2016":7098,"ദുരിത":7099,"##ങ്ങൾക്ക":7100,"ദർശ":7101,"കോമ":7102,"ഭാഗത്ത്":7103,"നാട്ടില്‍":7104,"ഉത്സവ":7105,"ഗത":7106,"മദ്ര":7107,"##ആർ":7108,"##കളിലൂടെ":7109,"##പരമായി":7110,"പ്രക്രിയ":7111,"##ത്തിന്റ":7112,"നിയമസഭ":7113,"പേരാണ്":7114,"മസ":7115,"##ങ്ങനെയുള്ള":7116,"വിലാസ":7117,"പെണ്ണു":7118,"അഹ":7119,"ഏജ":7120,"തന്ത്ര":7121,"അങ്ക":7122,"ആള്‍":7123,"പറ്റി":7124,"മമ്മ":7125,"കേട്ടു":7126,"അമ്മയെ":7127,"##ജന്യ":7128,"##െയായിരുന്നു":7129,"##കളെയും":7130,"കേസ്":7131,"വീടിന്റെ":7132,"ജോസഫ്":7133,"ലാഭ":7134,"പറഞ്ഞാൽ":7135,"മിന്ന":7136,"##ാംശ":7137,"##വദ":7138,"##ത്തിനിടെ":7139,"മാത്രമായിരുന്നു":7140,"ആളുകളെ":7141,"ഭക്ഷ്യ":7142,"ആവശ്യമായ":7143,"##ാറി":7144,"##്യത്തിൽ":7145,"##ിച്ചെങ്കിലും":7146,"തോന്നുന്നു":7147,"ലയ":7148,"ആരാധന":7149,"പായ":7150,"പൊരു":7151,"##ിക്കാറ":7152,"##ുണ്ടെന്ന്":7153,"സഹായത്തോടെ":7154,"പ്രവേശന":7155,"പ്രേരിപ്പ":7156,"വിശാലമായ":7157,"ചാന":7158,"മണ്ണ്":7159,"വാസ്":7160,"##ുവാ":7161,"##ുകളിലേക്ക്":7162,"##െന്നത്":7163,"തുടർന്ന":7164,"ഇംഗ്ലണ്ട":7165,"ഇന്നു":7166,"##കരു":7167,"താത്":7168,"വയ്യ":7169,"##്ട്രോ":7170,"ക്രിസ്ത":7171,"##നേരം":7172,"കുപ്പ":7173,"##ദിവസം":7174,"##ിച്ചതാണ്":7175,"കഴുക":7176,"##ുകൂട":7177,"ലോക്":7178,"##സാധ":7179,"##ാഞ്ച":7180,"##പ്പോല":7181,"വായിച്ചു":7182,"അവൾക്ക്":7183,"വടക്കൻ":7184,"പ്രൊഫ":7185,"##ൂസ്":7186,"##ക്കാട":7187,"പൊത":7188,"##ക്‌സ്":7189,"പൊട്ടി":7190,"##സിന്":7191,"ആവശ്യം":7192,"##ാവണം":7193,"ദ്വീപ്":7194,"75":7195,"ആന്‍":7196,"സംഭാഷ":7197,"ഗുജ":7198,"##ുഗ":7199,"വെച്ചു":7200,"വ്യക്തമാക്ക":7201,"##ുകിടക്കുന്ന":7202,"##ഡ്ജ":7203,"##സംരക്ഷ":7204,"ഇതില്‍":7205,"സാംസ്കാര":7206,"രാജ്യത്ത്":7207,"ഹിമാലയ":7208,"കൃഷിയിട":7209,"മകൾ":7210,"##ടിച്ചു":7211,"##ത്ന":7212,"ഓസ്ട്രേലിയ":7213,"##വെന്നും":7214,"ഉണ്ടാക്കിയ":7215,"##ോണി":7216,"ചെയ്യപ്പെട്ട":7217,"കളി":7218,"കാര്യമായ":7219,"നാരായണ":7220,"##റ്റില്‍":7221,"ഗ്രഹ":7222,"##ുകളുടെയും":7223,"ഒടുവില്‍":7224,"ദീപ":7225,"##മാറ":7226,"സംശയം":7227,"റെയിൽവേ":7228,"ഗ്യ":7229,"സേ":7230,"രണ്ടും":7231,"വിതരണം":7232,"##ാകൃ":7233,"കിട്ടും":7234,"രേഖപ്പെടുത്തിയ":7235,"സവിശേഷത":7236,"അപ്പോഴും":7237,"##ിയിലാണ്":7238,"##ാവിനെ":7239,"##ായിരിക്കണം":7240,"ശ്രമിച്ചു":7241,"ഇലക്ട്ര":7242,"ശ്വാസ":7243,"##സിപ്പ":7244,"##ാണത്":7245,"തിരിച്ച്":7246,"അനുകൂല":7247,"##ോൺ":7248,"അമ്പര":7249,"##ിക്കുറ":7250,"പറയാന്‍":7251,"##്യമായി":7252,"ഗൗര":7253,"##ലുകളും":7254,"പ്രയോജന":7255,"പൊള്ള":7256,"##യിലായിരുന്നു":7257,"##ലിക":7258,"##മാത്രം":7259,"കഴിഞ്ഞാൽ":7260,"ദൂരെ":7261,"മില്ല":7262,"##നുഭവ":7263,"തുള":7264,"മുസ്ലിം":7265,"മട്ട":7266,"ഷാ":7267,"##ിഫ":7268,"##ിന്റ്":7269,"##ാനാവില്ല":7270,"ജനറൽ":7271,"കൊണ്ടും":7272,"##ദ്വീപ":7273,"ഭദ്ര":7274,"ഹേ":7275,"##ോടി":7276,"പ്രാഥ":7277,"വിവേ":7278,"വെള്ളത്തിൽ":7279,"എന്നിവയുടെ":7280,"കേന്ദ്രം":7281,"ഇറങ്ങിയ":7282,"##ിത്തം":7283,"2017":7284,"പട്ടി":7285,"##ിലെയും":7286,"സമർപ്പ":7287,"വേട്ടയാട":7288,"ചെങ്ക":7289,"വിധി":7290,"##്മണ":7291,"##ിവച്ച":7292,"##ലൈൻ":7293,"മിക്കവാറും":7294,"എഞ്ച":7295,"##ജു":7296,"##പ്പാറ":7297,"##ജ്ഞാന":7298,"തെരഞ്ഞെടുക്ക":7299,"##ിക്കാനാണ്":7300,"തദ്ദേശ":7301,"##ൊന്നുമല്ല":7302,"കവിതകള്‍":7303,"ഉത്തർ":7304,"ചിന്ന":7305,"##ുരം":7306,"##പൊ":7307,"##ങ്ങളായിരുന്നു":7308,"വെടിയ":7309,"സ്ത്രീകൾ":7310,"അച്ഛന്‍":7311,"പാരമ്പര്യ":7312,"##സ്ഥാൻ":7313,"സൂചന":7314,"നടത്തുന്നത്":7315,"ജനിച്ച":7316,"ഇടതു":7317,"ഇടയ്ക്ക്":7318,"സമ്മേള":7319,"ഭരണഘടന":7320,"അല്പം":7321,"തക്ക":7322,"ജനിച്ചു":7323,"2010":7324,"അരങ്ങ":7325,"ആർക്കും":7326,"മക്ക":7327,"വിഡിയ":7328,"##ിച്ചതോടെ":7329,"സർവ്വ":7330,"പർവത":7331,"##ാക്ഷ":7332,"##ിക്കട":7333,"ഇരുവരും":7334,"##ഖണ്ഡ":7335,"##ിക്കുന്നുണ്ട":7336,"##സിറ്റി":7337,"പോലെയുള്ള":7338,"മാർഗ":7339,"വാട്ട":7340,"ലഭ്യമാണ്":7341,"പ്രദേശത്തെ":7342,"ഇതിനായി":7343,"ഭൂമിയിൽ":7344,"കീഴട":7345,"ഇതൊക്കെ":7346,"നേതാവ":7347,"ഓണ്‍":7348,"വളർന്ന":7349,"##മേണ":7350,"മാതാപിതാക്കൾ":7351,"##ഷന":7352,"##ചല":7353,"##ത്രിമ":7354,"##ികളായി":7355,"##ന്റെയും":7356,"വിദ്യാർഥ":7357,"കുറവാണ്":7358,"ശ്രീലങ്ക":7359,"80":7360,"അന്ത്യ":7361,"##ിഷ്ട":7362,"##ലൈന":7363,"##ക്കുക":7364,"ചെന്നു":7365,"##ക്കുറിച്ചു":7366,"##യോട്ട":7367,"##ഴിയ":7368,"ഗ്രാമീണ":7369,"##ല്ലാത്ത":7370,"പുരസ്കാര":7371,"വികസന":7372,"വല്ലാതെ":7373,"പപ്പ":7374,"##സര്‍":7375,"##ലിനെ":7376,"അവിടുത്തെ":7377,"##തീക്ഷ":7378,"##ാക്കാന്‍":7379,"പുറത്തേ":7380,"ഡാമ":7381,"##സ്ഥിത":7382,"നിരന്തരം":7383,"ഉള്ളിൽ":7384,"ഒരിട":7385,"ആരെങ്കിലും":7386,"ആണ്‍":7387,"##സ്യം":7388,"##ിയന്‍":7389,"##ങ്ങള്‍ക്കു":7390,"##ഴ്സ്":7391,"കീഴിൽ":7392,"ഓർക്ക":7393,"##്റെ":7394,"ലോകമെ":7395,"ക്യൂബ":7396,"##ിവെച്ച":7397,"##രുട":7398,"ഇവരെ":7399,"ക്ഷണ":7400,"അതിഥ":7401,"ഏകാന്ത":7402,"സായ":7403,"##ുകളുമായി":7404,"കാണുന്നു":7405,"രണ്ടോ":7406,"വാക്സ":7407,"ഫ്രഞ്ച്":7408,"##ുമുട്ട":7409,"ബസ":7410,"ആവാസ":7411,"ഹോം":7412,"സേവന":7413,"മന്ദ":7414,"##തേ":7415,"##ഡെ":7416,"##രിവ":7417,"ഇപ്പോഴത്തെ":7418,"അനി":7419,"ചന്ദ":7420,"അതിനാല്‍":7421,"മലയാളി":7422,"ആന്റ":7423,"അയച്ച":7424,"വന്യജീവി":7425,"വാടക":7426,"##ികളിലൂടെ":7427,"##ികൾക്കും":7428,"സെന്റ്":7429,"അസം":7430,"വിച":7431,"2000":7432,"##ിക്കലും":7433,"##ര്‍മ്മ":7434,"പരാതി":7435,"അപ്പോഴേക്കും":7436,"നിക":7437,"പാസ":7438,"കേരളത്തിന്റെ":7439,"നെല്ല":7440,"##ിയേസീ":7441,"##ിക്കള":7442,"അറിയാം":7443,"നടത്തിയത്":7444,"##ന്മാരെ":7445,"അവന്":7446,"വരച്ച":7447,"പ്രവർത്തിക്കുന്ന":7448,"കാത്തു":7449,"ലളിത":7450,"##േന്ത്യ":7451,"കോർ":7452,"##ുന്നതിനായി":7453,"ഓഗസ്റ്റ്":7454,"##ഴ്ച്ച":7455,"നൊ":7456,"സുവ":7457,"##ാടന":7458,"ഒരൊറ്റ":7459,"തേയില":7460,"സ്ത്രീകള്‍":7461,"ഈജിപ്":7462,"##ുകാണ":7463,"ഇരുട്ട":7464,"ധാരാള":7465,"##ഗർ":7466,"##ിക്കഴിഞ്ഞ":7467,"##മാരും":7468,"##സമൂഹ":7469,"റിസോർ":7470,"##ഡൻ":7471,"തിരുവനന്തപുര":7472,"പെട":7473,"നിലപാട":7474,"സംഗീതം":7475,"സ്വാതന്ത്ര്യം":7476,"ഇക്ക":7477,"കുല":7478,"മാംസ":7479,"##ിക്കുന്നതാണ്":7480,"സിംഗ":7481,"നാടൻ":7482,"താരതമ്യ":7483,"ആറ്റ":7484,"പരസ്യ":7485,"ഗന്ധ":7486,"മില":7487,"നിഷേധ":7488,"##ുമ്പോഴേക്കും":7489,"കൃത്രിമ":7490,"പോകുന്നു":7491,"കൂട്ടം":7492,"ഷാജ":7493,"##ന്‍റ്":7494,"കറുപ്പ":7495,"സാംസ്കാരിക":7496,"പ്രാഥമിക":7497,"ഫോൺ":7498,"കാണും":7499,"പൊതി":7500,"ചിലപ്പോള്‍":7501,"പേര്‍":7502,"മറിക":7503,"ലോക്ക്":7504,"മാനേജ":7505,"ലോകത്തിന്റെ":7506,"അട്ട":7507,"##റോളം":7508,"കുട്ടികൾക്ക്":7509,"അമ്പല":7510,"ചുണ്ട":7511,"##ാക്കള്‍":7512,"##ഭാഗത്ത്":7513,"##്‌ല":7514,"##സ്ഥാപ":7515,"ഉണ്ടായിട്ട":7516,"##യിലേക്കു":7517,"##ത്തൻ":7518,"##ിലിൽ":7519,"കൊണ്ടുവന്ന":7520,"സഞ്ചാരികളുടെ":7521,"കലാകാര":7522,"അറസ്റ്റ":7523,"കോട്ടയം":7524,"ബിജെ":7525,"##ാത്മക":7526,"മുര":7527,"##ിവേശ":7528,"##ത്തിൻറെ":7529,"പരിധ":7530,"അടക്കം":7531,"##ിക്കാനാവ":7532,"ഇന്ദിര":7533,"##ുവഴി":7534,"##പ്പോള":7535,"##ത്തിനുശേഷം":7536,"ചെലവ":7537,"##യിനം":7538,"##പ്പിന്റെ":7539,"##ിപ്പോയി":7540,"നീങ്ങ":7541,"ചെന്നൈ":7542,"വിട്ട്":7543,"നിര്‍ത്ത":7544,"നദി":7545,"##ശിക്ഷ":7546,"##ബ്‌":7547,"##ാനന്ദ":7548,"കുത":7549,"##ാറിൽ":7550,"ഇതോടെ":7551,"വായിച്ച":7552,"സങ്കേത":7553,"അഭിപ്രായം":7554,"കാസ്ട്രോ":7555,"ഫോണ്‍":7556,"##നോട്ട":7557,"പിഴ":7558,"ഉപദേശ":7559,"അത്രയും":7560,"നാ":7561,"ഫൈ":7562,"രക്ഷപ്പെട":7563,"കവാട":7564,"ഞങ്ങള":7565,"സുമ":7566,"##ഷന്‍":7567,"##ക്കിന്റെ":7568,"##ത്തിലധികം":7569,"31":7570,"പുറക":7571,"ജനപ്ര":7572,"ചേർക്ക":7573,"##മേറിയ":7574,"സ്ഥിരം":7575,"സോവ":7576,"നമ്മെ":7577,"##കൂള്‍":7578,"ദിവസത്തെ":7579,"അനുമതി":7580,"പയ്യ":7581,"സമുദ":7582,"പ്രശ്നം":7583,"തെളിഞ്ഞ":7584,"ജീവിതത്തെ":7585,"ഡോക്ടര്‍":7586,"ഇഴ":7587,"##ിക്കേണ്ടത്":7588,"സര്‍വ":7589,"അപരിചിത":7590,"എച്ച്":7591,"പെയ്യ":7592,"##ചിന്ത":7593,"##ിപ്പിക്കുകയും":7594,"മുഖത്ത്":7595,"ഗുരുത":7596,"മൊത്തം":7597,"##ോത്സാഹ":7598,"ഉം":7599,"ഫലം":7600,"##ാക്കുകയും":7601,"##വിധം":7602,"##ാചീന":7603,"പത്ത്":7604,"##േല്‍":7605,"ബോധ്യ":7606,"എല്‍":7607,"ഗീത":7608,"##ുളള":7609,"##ുന്നതു":7610,"വെറ്ററ":7611,"##ണ്ഡിത":7612,"വർഗ":7613,"വ്യത്യസ്തമായ":7614,"##തയോടെ":7615,"##നോട്":7616,"##കയ":7617,"##ണമെങ്കിൽ":7618,"##തീ":7619,"##വന്‍":7620,"##ിക്കുന്നതു":7621,"##ാതിരിക്കാൻ":7622,"പൂർണമായും":7623,"##ാലയം":7624,"##ാജ്":7625,"പര്യ":7626,"യഥാർത്ഥ":7627,"അറിയാതെ":7628,"##ീകരിച്ച്":7629,"സുഗന്ധ":7630,"70":7631,"ഇളം":7632,"##ൂട്ട്":7633,"പെരുമ്പ":7634,"2012":7635,"മണ്ണിൽ":7636,"കശ്മ":7637,"##വധ":7638,"##ക്റ്റ":7639,"##ാനിൽ":7640,"ഉപകരണ":7641,"തിന്ന":7642,"നിനക്ക്":7643,"##ങ്ങിന്റെ":7644,"##റിയില്ല":7645,"തെറ്റി":7646,"##ാന്തി":7647,"മൺ":7648,"##ിടത്തോളം":7649,"ബ്രഹ്മ":7650,"സല":7651,"പൊള":7652,"##ുവരുന്നു":7653,"നേതൃത്വം":7654,"സമാനമായ":7655,"##തുകൊണ്ട":7656,"##ത്തുനിന്ന്":7657,"ഇടവേള":7658,"2014":7659,"നമ്പൂതിര":7660,"##ാംപ":7661,"തീരെ":7662,"അടക്കമുള്ള":7663,"പാലക്കാട്":7664,"ഭൂമിയുടെ":7665,"ഏല":7666,"##ൂൺ":7667,"##ാമൻ":7668,"കൂട്ടിച്ചേ":7669,"മനുഷ്യരുടെ":7670,"സ്ല":7671,"##ശര":7672,"##ച്ചിൽ":7673,"സ്വി":7674,"##ത്ത്വ":7675,"രൂപീകര":7676,"പതിറ്റാണ്ട":7677,"യൂണിവേഴ്":7678,"ഏറ്റവുമ":7679,"കച്ചവട":7680,"##ിനിയ":7681,"അഭിമാന":7682,"ബംഗാള":7683,"ഒച്ച":7684,"ഭാരം":7685,"##ക്കിടയില്‍":7686,"##ത്രെ":7687,"നിറയ":7688,"പരിഹര":7689,"തണ്ട":7690,"##ോളി":7691,"കരുതുന്നു":7692,"ദഹ":7693,"പണിയ":7694,"##രീത":7695,"##െങ്കില":7696,"ഇടയിൽ":7697,"കുഞ്ഞുങ്ങളെ":7698,"ഉടമസ്ഥ":7699,"വാണിജ്യ":7700,"##ികളുമായി":7701,"##ദ്ധര":7702,"രാജാവ്":7703,"പ്രതിഫല":7704,"വെറ്ററിനറി":7705,"##ൃതി":7706,"പങ്കുവയ്ക്ക":7707,"##പന":7708,"##ളിഞ്ഞു":7709,"മക്കൾ":7710,"പൂർവ":7711,"ചേച്ച":7712,"##വെള്ള":7713,"അപ്പോഴാണ്":7714,"##യാണു":7715,"##കിയ":7716,"##ാട്ടം":7717,"വായു":7718,"വയസ":7719,"വയല":7720,"പഴക്കമുള്ള":7721,"ചെറിയൊരു":7722,"വിരുദ്ധ":7723,"തേങ്ങ":7724,"പൗ":7725,"##ിഷ":7726,"##പത":7727,"ദൈവം":7728,"##ർജ്ജ":7729,"ഗ്രീ":7730,"സ്ഥിതിചെയ്യുന്നത്":7731,"##ക്വ":7732,"##ിനാണ്":7733,"സിസ്റ്റ":7734,"പ്രവർത്തനം":7735,"മറിച്ച്":7736,"##ോറി":7737,"പിതാവ്":7738,"കാലയളവ":7739,"കളയ":7740,"ഗുരുവ":7741,"നൂറ്റാണ്ടിൽ":7742,"##നാട്ടിലെ":7743,"ഭരണകൂട":7744,"രൂ":7745,"ശബരി":7746,"വെക്ക":7747,"അവസാനത്തെ":7748,"കാമുക":7749,"ഭീമ":7750,"##ൂരി":7751,"വിചിത്ര":7752,"ഒരാഴ്ച":7753,"##ക്കൊണ്ട്":7754,"യൂറോപ്യൻ":7755,"വെല്ലുവിള":7756,"ഒമ്പ":7757,"പ്രളയ":7758,"കർണാടക":7759,"##െന്നെ":7760,"പുറമെ":7761,"ഏതായാലും":7762,"പ്രസിദ്ധീകരിച്ച":7763,"ഇത്തരത്തിൽ":7764,"തറവ":7765,"ഭൂരിപക്ഷ":7766,"വേനൽ":7767,"അവർക്ക":7768,"##ിപ്പിക്കും":7769,"കേരളത്തില്‍":7770,"ഭീഷണി":7771,"##ിയെടുത്ത":7772,"രാജ്യങ്ങളിൽ":7773,"##ക്കൊണ്ട":7774,"പ്രോത്സാഹ":7775,"സോവിയ":7776,"ഗൗ":7777,"##കന്‍":7778,"കൊച്ചി":7779,"##േരും":7780,"കടന്നുപോക":7781,"ആഭ്യ":7782,"##േണ്ടതുണ്ട്":7783,"ചേര്‍ന്ന":7784,"അച്ഛനും":7785,"പ്രാചീന":7786,"വിജയം":7787,"##ശ്ശേരി":7788,"സ്കൂളിൽ":7789,"സൗന്ദര്യം":7790,"ഉപയോഗിച്ചു":7791,"വിസ്മയ":7792,"അക്ഷ":7793,"പദ്ധത":7794,"പൊതുവെ":7795,"ഇന്ത്യയില്‍":7796,"വാസ്തു":7797,"രോമ":7798,"##്യൂട്ട്":7799,"##ഗ്രാമ":7800,"അമ്മയ":7801,"നന്ദി":7802,"ശാരീരിക":7803,"300":7804,"കൊറിയ":7805,"ജനത":7806,"താഴ്‌":7807,"##ദ്രവ":7808,"പറ്റില്ല":7809,"തെരഞ്ഞെടുപ്പ":7810,"വോട്ട":7811,"മാത്യ":7812,"പവി":7813,"വൈവിധ":7814,"നേരിടുന്ന":7815,"പ്രാണ":7816,"ചെയ്യണം":7817,"നൽകാൻ":7818,"##പ്പിൾ":7819,"നാട്":7820,"പറയുന്നുണ്ട്":7821,"##ിണ":7822,"##ഫോ":7823,"ഇല്ലാതെ":7824,"ഉടനെ":7825,"ക്രിസ്ത്യ":7826,"കിഴക്ക":7827,"##കനും":7828,"##വുമുണ്ട്":7829,"മേഖലയിലെ":7830,"പദ്ധതിയ":7831,"ദേശീയോദ്യ":7832,"പ്രേമ":7833,"ഭ്രമ":7834,"##ാവുകയും":7835,"നീന്ത":7836,"നിലനില്‍":7837,"##പ്പെടുത്തുന്നു":7838,"രാജ്യത്തിന്റെ":7839,"മുന്‍പ":7840,"നിശ്ശ":7841,"നിറത്തിലുള്ള":7842,"##കങ്ങൾ":7843,"##മൊന്നും":7844,"##ുകട":7845,"വിഭാഗത്തിൽ":7846,"ചക്ക":7847,"##ിവന്നു":7848,"##ത്തിലുണ്ട്":7849,"##മുദ്ര":7850,"നിര്‍ബന്ധ":7851,"##ിയ്ക്ക്":7852,"##ിവാര":7853,"##ുണ്ടാക്കിയ":7854,"##ാനുഭവ":7855,"ഗര്‍ഭ":7856,"##്രുവ":7857,"കഴിച്ചു":7858,"##ന്‍സ":7859,"പുൽ":7860,"അമിത":7861,"ആദര":7862,"വൈകുന്നേരം":7863,"വളരെയധികം":7864,"##സമ്പ":7865,"##ബുക്ക":7866,"##ിൽനിന്ന്":7867,"പേജ":7868,"പങ്കെടുത്ത":7869,"അക്കാല":7870,"##യെങ്കിലും":7871,"##ിക്കുകയോ":7872,"വിശുദ്ധ":7873,"തുടക്കത്തിൽ":7874,"സെപ്റ്റംബർ":7875,"എറണാകുളം":7876,"തെക്കൻ":7877,"കാന്ത":7878,"2015":7879,"പുസ്തകങ്ങൾ":7880,"എന്നതായിരുന്നു":7881,"അപ്രതീക്ഷ":7882,"സമുദായ":7883,"ആഭ്യന്തര":7884,"മുഗ":7885,"തോന്നും":7886,"ജീവിതത്തില്‍":7887,"പഠിച്ച":7888,"കൈവര":7889,"##്‌ള":7890,"ഒരുപക്ഷേ":7891,"കമ്മീഷ":7892,"വരുമ്പോൾ":7893,"ലൈന":7894,"##തല്ല":7895,"##ിയാതെ":7896,"ഉണ്ടായിരുന്നില്ല":7897,"ജില്ലാ":7898,"പ്രധാനമന്ത്രി":7899,"താന":7900,"കാബ":7901,"മനുഷ്യൻ":7902,"പ്രസംഗ":7903,"##നീലി":7904,"വളര്‍ച്ച":7905,"നഗരത്തിലെ":7906,"##പാട്":7907,"##ാക്കുക":7908,"##യുക്ത":7909,"90":7910,"പര്‍":7911,"സാർ":7912,"##നായിരുന്ന":7913,"സംഭ":7914,"##റിയുടെ":7915,"ഫലപ്രദ":7916,"സുപ്രീം":7917,"##ക്കാഴ്ച":7918,"##്പന":7919,"##കാലത്തെ":7920,"മാറ്റിയ":7921,"##ഡില്‍":7922,"പുല്ല":7923,"മഹാരാഷ്ട്ര":7924,"സ്പെ":7925,"ജലം":7926,"##ുകര":7927,"##ികത":7928,"കഴിഞ്ഞില്ല":7929,"മിടുക്ക":7930,"സമീപം":7931,"അധികൃതർ":7932,"എഴ":7933,"കായ്":7934,"##ടിയാണ്":7935,"പരിശ്രമ":7936,"സാന്നിധ്യം":7937,"തന്നു":7938,"##ുകളുള്ള":7939,"ഉണ്ടാകും":7940,"രാജ്യാന്തര":7941,"കിര":7942,"മൂത്ത":7943,"താങ്ങ":7944,"സന്ധ്യ":7945,"പ്രക്ഷ":7946,"മലയ":7947,"##ത്തേയും":7948,"നീളമുള്ള":7949,"കാല്‍":7950,"##വർഗ":7951,"ബീച്ച്":7952,"സംബന്ധിച്ച്":7953,"കോൺഗ്രസ്":7954,"അഗ്നിപ":7955,"##റായ":7956,"പാർക്ക്":7957,"ടൂറിസ്റ്റ്":7958,"സഫ":7959,"##ക്ഷൻ":7960,"##കരമായി":7961,"ഉയർത്ത":7962,"##‌സ്":7963,"##ഷ്ക":7964,"##ോർഡ്":7965,"മനുഷ്യരെ":7966,"പാടില്ല":7967,"വായനക്കാര":7968,"കാനഡ":7969,"##ിക്കരുത്":7970,"സൈന്യം":7971,"റിപ്പബ്ല":7972,"ചെയ്തിട്ടുണ്ട്":7973,"ഏഴ്":7974,"ചത്ത":7975,"വിവാദ":7976,"നഗരത്തിൽ":7977,"ഭരണം":7978,"##ൂന്യ":7979,"വാക്ക്":7980,"മെഡിക്കൽ":7981,"നിശ്ശബ്ദ":7982,"അപൂര്‍":7983,"മറന്നു":7984,"##കളുടെയും":7985,"##ശ്രീ":7986,"##ൈല":7987,"ശരിയായ":7988,"വർഷങ്ങൾ":7989,"പിൽ":7990,"വനി":7991,"##വിളി":7992,"ദൃശ്യം":7993,"കൊടും":7994,"##ിക്കൻ":7995,"അകത്ത":7996,"ശ്വാസം":7997,"##ാന്ന":7998,"സ്മാര":7999,"##ക്ഷണ":8000,"അവാർഡ്":8001,"##ാവസ":8002,"പിണ":8003,"കുറിച്ചുള്ള":8004,"ജനിച്ചത്":8005,"##ശാസ്ത്രം":8006,"അത്ത":8007,"##േരെ":8008,"ബാംഗ":8009,"വിത്ത്":8010,"സെക്ക":8011,"ആവർത്ത":8012,"##ഭാഗവും":8013,"സമ്പ്രദ":8014,"വസന്ത":8015,"##വിയ":8016,"വരുമാനം":8017,"##സംരക്ഷണ":8018,"##ില്‍നിന്ന്":8019,"മനുഷ്യര്‍":8020,"വ്യാപകമായി":8021,"വക്ക":8022,"##ക്കാള്‍":8023,"##റിയിൽ":8024,"നിയോഗ":8025,"തകര":8026,"##്ബ":8027,"##വുമില്ല":8028,"കമ്പ്യൂട്ട":8029,"ലൈബ്ര":8030,"ഷി":8031,"ഹരിത":8032,"##ുമ്പ്":8033,"കൂടുത":8034,"സകല":8035,"##റഞ്ഞ":8036,"കൊത്ത":8037,"മരണമ":8038,"തുടങ്ങുന്നത്":8039,"ഒത്ത":8040,"##ൈസ്":8041,"എന്നിട്ട്":8042,"വീശ":8043,"നിർദേശ":8044,"മേല":8045,"പാതി":8046,"##പ്പോലും":8047,"പുരാവ":8048,"പഞ്ചാബ":8049,"##കൊള്ള":8050,"മദ്ധ്യ":8051,"##ാത്":8052,"##ത്തുന്നത്":8053,"അതൊക്കെ":8054,"കളിയ":8055,"ചോദിച്ച":8056,"ശ്രീക":8057,"എന്നിവിടങ്ങളിൽ":8058,"##ക്കല":8059,"##ഞ്ഞി":8060,"പറയാന":8061,"##ലിസ്റ്റ്":8062,"ആയു":8063,"##ബുക്ക്":8064,"ഹര":8065,"തുറമുഖ":8066,"പ്രായമുള്ള":8067,"മരങ്ങൾ":8068,"പിന്‍":8069,"ശങ്ക":8070,"##സഹ":8071,"##െടുപ്പ്":8072,"തെക്കു":8073,"##ണമെന്നു":8074,"##കൂടി":8075,"##പ്പുറത്ത്":8076,"സാവ":8077,"##കുന്ന":8078,"മാത്രമായി":8079,"എത്തിയത്":8080,"ഹു":8081,"##ഗിരി":8082,"പറന്നു":8083,"വർഷത്തെ":8084,"കുടിയേറ്റ":8085,"ദശല":8086,"##ഭേദ":8087,"##വേഗ":8088,"മുസ്ല":8089,"##ിവയ":8090,"സമരം":8091,"അടിത്ത":8092,"വെള്ളച്ചാട്ടം":8093,"##ണല്‍":8094,"##ര്‍ജ":8095,"ചിത്രങ്ങള്‍":8096,"ആണെന്ന്":8097,"##ിച്ചിരുന്നില്ല":8098,"കാരണമായി":8099,"വടക്കേ":8100,"തിരക്കഥ":8101,"നൃത്തം":8102,"അല്‍":8103,"ഖാൻ":8104,"നിലനിന്ന":8105,"വാഹനം":8106,"##ാഗ്രഹ":8107,"വരുമ":8108,"വീതം":8109,"പൂക്കള":8110,"2013":8111,"സമൂഹം":8112,"അതിനുശേഷം":8113,"മല്ല":8114,"##ുമൊരു":8115,"ഇവിടെയുണ്ട്":8116,"അയാൾക്ക്":8117,"ആക്രമണം":8118,"കല്യാണം":8119,"##ർട്ട":8120,"ചെയ്യുകയും":8121,"##മാനം":8122,"##ോഗ്രാഫ":8123,"ക്രൈ":8124,"നല്‍കുന്ന":8125,"2008":8126,"##കുമാര":8127,"സീന":8128,"പറയപ്പെടുന്നു":8129,"ഗ്രാമത്തിലെ":8130,"ഉടൻ":8131,"വംശനാശ":8132,"നിങ്ങൾക്ക്":8133,"ബ്രാഹ":8134,"അപകടം":8135,"##തയിൽ":8136,"##ുഡ":8137,"##ുകളെയും":8138,"ഇവിടെയെ":8139,"അഭയ":8140,"കിണ":8141,"സൂര്യപ്രകാശ":8142,"തമ്മില്‍":8143,"36":8144,"ഗോൾ":8145,"വിഗ്രഹ":8146,"നടക്കുന്നു":8147,"പ്രകൃതിയ":8148,"ഉയരത്തിൽ":8149,"ശാഖ":8150,"പ്രെ":8151,"പൊടി":8152,"##ുകാരും":8153,"ഉറക്കം":8154,"കോളജ":8155,"ഉത്തർപ്രദേശ":8156,"ദ്":8157,"##ിക്കുവാൻ":8158,"##ണ്ടായ":8159,"എന്നുള്ള":8160,"ഭാഷയിൽ":8161,"കാട്ടുപ":8162,"##വിരുദ്ധ":8163,"ഭയം":8164,"##ധന":8165,"##ുമാര":8166,"ചെയ്‌":8167,"ബാങ്ക":8168,"ടിക്കറ്റ്":8169,"##ണിൽ":8170,"##ത്തോടു":8171,"##ുവശ":8172,"യാത്രയുടെ":8173,"പിടി":8174,"2009":8175,"ലൈസ":8176,"ലും":8177,"യാത്രയിൽ":8178,"തടാകം":8179,"ശൈല":8180,"ചിറക":8181,"ബസ്സ":8182,"##ംഭ":8183,"സ്‌റ്റ":8184,"2006":8185,"ഡൈ":8186,"##ഃഖ":8187,"മുറി":8188,"വിളവെ":8189,"##നുമ":8190,"##കീയ":8191,"സിറിയ":8192,"സൗദി":8193,"തുറന്ന്":8194,"നൽകിയത്":8195,"കണക്ക്":8196,"താൽപര":8197,"ചിരി":8198,"ദമ്പ":8199,"##ാമ്മ":8200,"ജസ്റ്റ":8201,"##നമാണ്":8202,"##മെങ്കിലും":8203,"##ട്ടാണ്":8204,"അനുസര":8205,"മനുഷ്യർ":8206,"ഇംഗ്ലീഷ":8207,"##ലിന്":8208,"##ഴം":8209,"നിലയില്‍":8210,"സ്നേഹം":8211,"നാണ്":8212,"##ുകിട്ട":8213,"##മെന്നു":8214,"ദേഹ":8215,"ധ്യ":8216,"വിഷ്ണ":8217,"ബന്ധപ്പെട്ട്":8218,"വാതിൽ":8219,"ആട്ട":8220,"താല്‍":8221,"എത്തുന്നത്":8222,"സംസ്കൃത":8223,"##ബോ":8224,"പോകാന്‍":8225,"ജീവി":8226,"##ഷ്യൽ":8227,"നേപ്പ":8228,"അസാധാരണ":8229,"എട്ട്":8230,"##സംഗ":8231,"##ീബ":8232,"##ത്തിൻ":8233,"മനുഷ്യന്‍":8234,"സൂപ്പർ":8235,"ജില്ലയിൽ":8236,"ഹോസ്റ്റ":8237,"നീളം":8238,"ഉണ്ടായി":8239,"നടത്താൻ":8240,"##മാകുന്നു":8241,"നിലനിർത്ത":8242,"ക്ഷീര":8243,"##പട":8244,"##ുമുത":8245,"നൽകുന്നത്":8246,"##ോസ്പ":8247,"ട്രെയിന":8248,"ഓടിയ":8249,"##രീതിയ":8250,"##യുമാണ്":8251,"പറയാതെ":8252,"##ത്തുനിന്നും":8253,"കൂടുതലായി":8254,"##കാ":8255,"##ുണ്ടാവ":8256,"പരാത":8257,"കഥകള്‍":8258,"ആണു":8259,"നിർമിച്ച":8260,"##ാണെന്നാണ്":8261,"പോളി":8262,"##ാറിലെ":8263,"##ിമരം":8264,"##പ്രശ്":8265,"നീട്ടി":8266,"190":8267,"ന്യൂസ്":8268,"##റൂ":8269,"##ാരോഗ":8270,"##ുമല":8271,"നിർവഹ":8272,"മെസ്സ":8273,"ചെറുക":8274,"ആരംഭിച്ച":8275,"സോവിയറ്റ്":8276,"ഭക്ത":8277,"##ീട":8278,"##ുവേണ്ട":8279,"അകലെ":8280,"വൃദ്ധ":8281,"ഭൂമിശാസ്ത്ര":8282,"ശില്പ":8283,"അഫ്ഗാനി":8284,"ശബരിമല":8285,"##പാള":8286,"##ൈറ്റ":8287,"##ത്താൻ":8288,"##കളുമായി":8289,"ആകാം":8290,"അതിശയ":8291,"##ൾഫ":8292,"##േഡ്":8293,"##മായുള്ള":8294,"കാണപ്പെടുന്നു":8295,"##ോഗ്രാം":8296,"##േക്കു":8297,"##ിയാന":8298,"##ടിയില്‍":8299,"ഇവയിൽ":8300,"##ജീവിതം":8301,"പടിഞ്ഞാറൻ":8302,"##യാ":8303,"##മനം":8304,"##ുമെന്നാണ്":8305,"അടിച്ച":8306,"താങ്ക":8307,"തിമിംഗല":8308,"ഇളയ":8309,"പാരി":8310,"മോദ":8311,"ശമ്പ":8312,"##ദൃ":8313,"ഇതെല്ലാം":8314,"##ാഗ്ദ":8315,"ലഘ":8316,"##യാക":8317,"##ിക്കറ്റ":8318,"സ്ത്രീകളുടെ":8319,"സഞ്ചാരികള്‍":8320,"##ോസിയ":8321,"പണിത":8322,"റേഡിയോ":8323,"##ോയുടെ":8324,"##െട":8325,"സെൻ":8326,"##ോധന":8327,"##ഡിങ്":8328,"##ക്‌സി":8329,"##ിക്കാർ":8330,"##ുമാത്രം":8331,"കുട്ടിയെ":8332,"അതിർത്ത":8333,"ഇന്ദ്ര":8334,"##െയിൻ":8335,"##ാൻസ്":8336,"##ികൾക്കു":8337,"കൈയ്യ":8338,"എട്ടു":8339,"##ിയിലൂടെ":8340,"ഉയർന്നു":8341,"##രാജ്യ":8342,"##ശില":8343,"##യൊരു":8344,"##ര്‍ത്തു":8345,"സമൃദ്ധ":8346,"##ച്ചുഗ":8347,"ക്യാപ്":8348,"പ്രശ്നങ്ങൾ":8349,"സോഷ്യല്‍":8350,"യഹൂദ":8351,"##ാത്യ":8352,"##ിപ്പിക്കുക":8353,"വല്യ":8354,"തൊട്ടു":8355,"കയ്യില്‍":8356,"സിദ്ധാന്ത":8357,"ആഹാര":8358,"ന്യായ":8359,"##നിർ":8360,"മെല്ലെ":8361,"##യെന്ന":8362,"##ിക്കായി":8363,"##ികളില":8364,"ഉയരമുള്ള":8365,"അധികാരം":8366,"തുറക്ക":8367,"സുഹൃത്തുക്കള":8368,"താറ":8369,"##ധ്യ":8370,"##ത്തിലേക്കുള്ള":8371,"##ുന്നുണ്ടായിരുന്നു":8372,"നമ്മളെ":8373,"ഭൗതിക":8374,"കബ":8375,"ഹിന്ദി":8376,"സമുദ്രനിര":8377,"##ിതിയ":8378,"##ുവള":8379,"ആദ്യകാല":8380,"പാപ്പ":8381,"##ീനം":8382,"നടന്ന്":8383,"സാഹചര്യം":8384,"സ്മ":8385,"##ിക്കുന്നതിൽ":8386,"മ്യൂസിയം":8387,"ഓൺലൈൻ":8388,"ടേ":8389,"##വർക്ക":8390,"##ഗത":8391,"##ിപ്പിക്കാന്‍":8392,"കൊടു":8393,"അറുപ":8394,"ഭാവന":8395,"ലഹ":8396,"##േയുള്ളൂ":8397,"##ർഥ":8398,"ഏറ്റെടുക്ക":8399,"##ിയാ":8400,"##ികളിലെ":8401,"പലതരം":8402,"മെക്സ":8403,"ബാംഗ്ല":8404,"സീത":8405,"##ുമെന്നു":8406,"കൂട്ടിയ":8407,"അലങ്കാര":8408,"താമസിയാതെ":8409,"മാറുന്നു":8410,"കൗൺ":8411,"##സ്കോ":8412,"##ഗ്ഗം":8413,"##െടുത്തത്":8414,"##ിക്കുന്നതിനായി":8415,"##രിഞ്ഞ":8416,"നിൽക്കുന്നു":8417,"മന്ത്രി":8418,"ഹൃദയം":8419,"വേർതിര":8420,"##യാള്‍":8421,"##ന്നെയ":8422,"പഠിച്ചു":8423,"ചിത്രങ്ങളും":8424,"ഉൾക്കൊള്ള":8425,"ഭരണാധികാര":8426,"വിഭജ":8427,"ഇമെയിൽ":8428,"ഫാം":8429,"മേശ":8430,"രവി":8431,"##ത്തല":8432,"##ിനുമ":8433,"##സ്‌ട്ര":8434,"വാക്കുകള്‍":8435,"റെഡ്":8436,"പച്ചക്കറി":8437,"അപ്രത്യ":8438,"ബോട്ട്":8439,"##ാസ്റ്റ്":8440,"കാറ്റ്":8441,"ദുബായ":8442,"വിമാനത്താവള":8443,"ടു":8444,"##യല്ല":8445,"##രിശ":8446,"##തിനും":8447,"##വർക്കും":8448,"പുറത്തിറങ്ങ":8449,"അണു":8450,"യഥാർഥ":8451,"ചിട്ട":8452,"ബാർ":8453,"സജ്ജ":8454,"##ാവൽ":8455,"മേയ്":8456,"##പഠ":8457,"സെക്രട്ടറി":8458,"##ര്യമ":8459,"പ്രപഞ്ച":8460,"##ുവച്ച":8461,"പേരി":8462,"വേണ്ടത്":8463,"##ശലഭം":8464,"##ഡും":8465,"ശ്രീന":8466,"ടെസ്റ്റ്":8467,"##എൻ":8468,"പേരെ":8469,"തലച്ച":8470,"വീട്ടില":8471,"ഇൻസ്റ്റിറ്റ":8472,"അംഗീ":8473,"സംസാരിച്ചു":8474,"തീവ്രവാദ":8475,"റിപ്പോര്‍ട്ട്":8476,"രൂക്ഷ":8477,"##ൗണ്‍":8478,"മുതിര":8479,"ചെവ":8480,"കയറ്റി":8481,"അല്ലേ":8482,"##ാദി":8483,"നാലാം":8484,"150":8485,"തുടങ്ങും":8486,"ഫലമായി":8487,"റബ":8488,"ശരി":8489,"പരിക്ക":8490,"മറയ":8491,"വയസ്സുള്ള":8492,"##മനോഹ":8493,"കസേര":8494,"ആയിരിക്കും":8495,"പഞ്ചായത്ത്":8496,"രജ":8497,"##ാറുള്ള":8498,"##മായിരുന്നില്ല":8499,"##മ്മയുടെ":8500,"അപ്പോഴ":8501,"ഒല":8502,"സന്യ":8503,"##ചു":8504,"ഒരേയ":8505,"നമുക്ക":8506,"തൃശ്ശ":8507,"സിവ":8508,"##ർഘ":8509,"##ക്കുകൾ":8510,"കഴിച്ച":8511,"പഠിക്കുന്ന":8512,"വയസ്സ്":8513,"പെട്ടെന്നു":8514,"ഫുട്ബ":8515,"##താര":8516,"##ക്കാരായ":8517,"സൗജന്യ":8518,"##പത്ര":8519,"അതുവരെ":8520,"##ിരുന്നാലും":8521,"##ിക്കുന്നതിനു":8522,"സുഹൃത്ത്":8523,"ഞായ":8524,"പോക്ക":8525,"വിളിച്ച":8526,"##ജിത്":8527,"ഹോട്ടൽ":8528,"##ബോധം":8529,"തമാശ":8530,"##നമായ":8531,"##ളൂ":8532,"##ലായ":8533,"##കൂർ":8534,"വിചാരണ":8535,"താരം":8536,"##ാഖ്യാന":8537,"##സാമ":8538,"##ക്കാരന്‍":8539,"സഹായിക്കും":8540,"##ുകിഴ":8541,"ഗണിത":8542,"സമൂഹമാധ്യമങ്ങളിൽ":8543,"അസ്ഥ":8544,"മാസിക":8545,"പാതിര":8546,"പണ്ഡിത":8547,"പൂന്ത":8548,"##ാന്തരം":8549,"തങ്ങൾ":8550,"##തെന്നും":8551,"##ർജ്":8552,"##സ്താവ":8553,"നീങ്ങി":8554,"##േശ്വ":8555,"ക്രിക്കറ്റ്":8556,"പാർല":8557,"പ്രവേശനം":8558,"തത്ത്വ":8559,"പാക്കി":8560,"പേടി":8561,"ബാങ്ക്":8562,"##നെയും":8563,"##ികൊണ്ട":8564,"ദിശ":8565,"താല്പ":8566,"മാഷ":8567,"ചെമ്മ":8568,"പരിഭാഷ":8569,"കൂടുതലും":8570,"##ഗതി":8571,"ആരാണ്":8572,"ക്ഷമ":8573,"##േയില്ല":8574,"ഒറ്റയ്ക്ക്":8575,"യുദ്ധത്തിൽ":8576,"അൽപം":8577,"##ക്കോട":8578,"##ുണ്ടായിരുന്നില്ല":8579,"മേല്‍":8580,"കാട്ടുത":8581,"ചന്ത":8582,"കാവ്യ":8583,"##ൊള":8584,"##ട്ടിക്ക":8585,"##ണമുള്ള":8586,"രാത്രിയിൽ":8587,"താലൂ":8588,"##വോ":8589,"##ത്തോ":8590,"##്യു":8591,"##വിൻ":8592,"ഉപദ്രവ":8593,"ഓരോരുത്ത":8594,"എക്സ്പ":8595,"##കനായി":8596,"##ധര":8597,"വിളിക്കുന്നത്":8598,"##ംബര":8599,"##ക്കാർക്ക്":8600,"ഒരുമിച്ച്":8601,"കുരങ്ങ":8602,"32":8603,"വന്‍":8604,"##െയുടെ":8605,"ആശ്വാസ":8606,"##യുട":8607,"##വിട്ട്":8608,"പരിണ":8609,"ഉപകര":8610,"വ്യക്തമാക്കി":8611,"ബാധിച്ച":8612,"അവള്‍ക്ക്":8613,"##നത്തെ":8614,"##വെന്ന":8615,"##ചേര":8616,"##50":8617,"##നുസര":8618,"##ാത്തി":8619,"സ്ത്രീകളെ":8620,"അച്ഛനെ":8621,"കര്‍ഷകര്‍":8622,"ഭ്രാന്ത":8623,"അജ്ഞ":8624,"പാണ്ഡ":8625,"യേശ":8626,"പ്രാർത്ഥ":8627,"റഷ്യൻ":8628,"ലോക്ഡ":8629,"വനിതാ":8630,"##ടിച്ച":8631,"##മ്പി":8632,"തെങ്ങ":8633,"സെൽ":8634,"കുട്ടിയുടെ":8635,"മനസ്സിലാക്കി":8636,"##ൊഴില":8637,"##മൃഗ":8638,"##ഡർ":8639,"##പ്പര്‍":8640,"നിഴ":8641,"ജനങ്ങളുടെ":8642,"ജോലിയ":8643,"##വേല":8644,"പുനര":8645,"പൂര്‍ത്തിയ":8646,"##വന്റെ":8647,"##കളിലേക്ക്":8648,"വന്നപ്പോൾ":8649,"നൂറുക":8650,"ബഹുമാന":8651,"##യൽ":8652,"##ങ്ങളോളം":8653,"പ്രഥ":8654,"##ാടനം":8655,"##ുകാരൻ":8656,"ഭൂമിയിലെ":8657,"##ാശ്ച":8658,"##സോ":8659,"##ാഗതം":8660,"ആത്മീയ":8661,"പഞ്ചാബ്":8662,"തമിഴ":8663,"##സൺ":8664,"##പ്പില്‍":8665,"മുക്ക":8666,"##ുമ്പി":8667,"തെക്കേ":8668,"ഉള്ളില്‍":8669,"സ്റ്റേറ്റ്":8670,"മൊബൈൽ":8671,"ഹാജ":8672,"##വൾ":8673,"ചെയ്യാനുള്ള":8674,"##്യമുണ്ട്":8675,"ചിലര്‍":8676,"ദുഃഖ":8677,"രക്തം":8678,"##ംസ്":8679,"##ഷീ":8680,"##റിങ്":8681,"##പ്പെട്ടിരുന്ന":8682,"അധ്യ":8683,"ഭാഗമാണ്":8684,"##ത്തോടെയാണ്":8685,"##േതായ":8686,"ഞാനെ":8687,"അദ്ധ":8688,"മസ്":8689,"സന്ന":8690,"കുഞ്ഞ്":8691,"മുസ്‌":8692,"##ുകൾക്കു":8693,"##ൊരിക്കലും":8694,"##ിക്കുമോ":8695,"ഹൗസ്":8696,"##ാബി":8697,"##ഹി":8698,"##േട":8699,"എന്നോ":8700,"കണ്ടാൽ":8701,"അപ്രത്യക്ഷ":8702,"##യിലേക്കുള്ള":8703,"വിളവ":8704,"നേരത്തേ":8705,"##ക്റ്റ്":8706,"മുടി":8707,"ഉപരി":8708,"പ്രകൃതിയുടെ":8709,"വിശ്വസിക്കുന്നു":8710,"വനംവകുപ്പ":8711,"##ങ്ങളിലുള്ള":8712,"കഥയാണ്":8713,"##ക്കുള്ളിൽ":8714,"സംസ്ഥാനത്തെ":8715,"##ഭാവം":8716,"##ുമാത്ര":8717,"##ിവയ്ക്ക":8718,"വർഗ്ഗ":8719,"##ിച്ചിട്ടും":8720,"പെരുമാറ്റ":8721,"ഗവൺ":8722,"ഓക്സി":8723,"ഖുർ":8724,"##ിണി":8725,"##ക്കെല്ലാം":8726,"കീട":8727,"ലൈഫ്":8728,"##മാറി":8729,"നടപടി":8730,"ഓറ":8731,"##ുമില്ലാത്ത":8732,"കരുതുന്നത്":8733,"ഇൻഡ":8734,"വധശിക്ഷ":8735,"അന്ധ":8736,"ആന്റി":8737,"നൽകുന്നു":8738,"മഹാര":8739,"##ാബാദ്":8740,"മുഴുവനും":8741,"ദൂരദർശ":8742,"ത്":8743,"##ന്നത്":8744,"##ിക്കാണ":8745,"നിറച്ച":8746,"##ാണ്ടി":8747,"ചൈനയിലെ":8748,"റിപ്പോർട്ട":8749,"##ംഖ":8750,"തൊട":8751,"സർവീസ്":8752,"അശ്വ":8753,"തല്ല":8754,"##ോളജ":8755,"##വർണ":8756,"##ിനുള്ളില്‍":8757,"വൈദ്യുതി":8758,"വാശ":8759,"ആശയം":8760,"##വുമുള്ള":8761,"ഞങ്ങൾക്ക്":8762,"##വള്‍":8763,"പ്രധാനം":8764,"##ുകാരെ":8765,"നദിയുടെ":8766,"പിറ്റേന്ന്":8767,"കണ്ണ്":8768,"##ാത്സ":8769,"##മണ":8770,"കിടക്കുന്നു":8771,"ഏതൊരു":8772,"കാണുക":8773,"ആര്യ":8774,"##മല്ലാത്ത":8775,"സങ്കല്പ":8776,"തൊട്ടടുത്ത":8777,"##ക്കൂടി":8778,"അടിയന്തര":8779,"മീറ്റര്‍":8780,"പാപ":8781,"##്ന":8782,"##ാദൃ":8783,"നായർ":8784,"ഒരുപാടു":8785,"സൗകര്യം":8786,"രാഹ":8787,"##ലായി":8788,"വന്നില്ല":8789,"കണ്ണു":8790,"##ിക്കുമെന്ന":8791,"മുഖ്യമന്ത്രി":8792,"##പാഠ":8793,"##ിമറ":8794,"##ിച്ചിട്ടുള്ളത്":8795,"പൈസ":8796,"##സ്ഥിതിക":8797,"##റേ":8798,"##ാലം":8799,"##പ്പെടുത്താൻ":8800,"##ിലൂടെയാണ്":8801,"##ാന്ത്":8802,"അന്വേഷണം":8803,"##വർഷം":8804,"നേട്ട":8805,"നിസ്സഹായ":8806,"##വൽ":8807,"##ോത":8808,"##ിപ്പോൾ":8809,"സിംഗ്":8810,"പക്ഷി":8811,"ശരീരത്തിൽ":8812,"അവരിൽ":8813,"വിമാനം":8814,"സ്ഥിരമായി":8815,"ഭാരതീയ":8816,"പകുതി":8817,"##ലുകള":8818,"##്രി":8819,"ഒന്നോ":8820,"ആരംഭിച്ചത്":8821,"കുഴപ്പ":8822,"##്മെന്റ":8823,"മണ്ഡല":8824,"##യിലേ":8825,"##ിക്കാതിര":8826,"##ഷ്കര":8827,"വൈദ":8828,"ഒരാളെ":8829,"വൈകുന്നേര":8830,"ധീര":8831,"വനിത":8832,"##നാർ":8833,"വിളിച്ച്":8834,"##ക്കിടയിലൂടെ":8835,"##തിനുശേഷം":8836,"ചാണക":8837,"ഞങ്ങള്‍ക്ക്":8838,"ശിൽ":8839,"സ്വര":8840,"ഗ്രാമത്തിൽ":8841,"##പിള്ള":8842,"##ദര":8843,"ദിവസങ്ങൾ":8844,"##ഫ്റ്റ്":8845,"ബന്ധുക്കള":8846,"എനിക്കും":8847,"ക്രിസ്റ്റ":8848,"മാൻ":8849,"##തായ":8850,"##പ്പിച്ചു":8851,"ഉപയോഗിച്ച":8852,"പരിശീലന":8853,"##മെടുക്ക":8854,"ബ്ലാക്ക്":8855,"അതിര്‍":8856,"കമ്പനിയുടെ":8857,"പാവം":8858,"##കേ":8859,"##ൂരം":8860,"##ങ്ങളൊന്നും":8861,"പ്രജന":8862,"കുറഞ്ഞു":8863,"മുകളിലേക്ക്":8864,"കാലഘട്ടത്തിൽ":8865,"പാശ്ച":8866,"##ാക്കണം":8867,"സ്ഥലമാണ്":8868,"വിഷം":8869,"ജൂത":8870,"പ്രഖ്യാപിച്ചു":8871,"മിനിറ്റ്":8872,"കല്യാണ":8873,"##നീസ്":8874,"##ീക്ക":8875,"##പ്പിച്ച":8876,"##ിട്ടാണ്":8877,"##കൾക്കു":8878,"മഹാ":8879,"മനസ്സിലായി":8880,"നൂറ്റാണ്ടിന്റെ":8881,"ഓർത്ത":8882,"ജനിത":8883,"##പ്പാട്":8884,"##മുന":8885,"ശിഷ്യ":8886,"തങ്ക":8887,"##്ക്ക്":8888,"##ക്കല്ല":8889,"ചെയ്യുന്നത":8890,"താമര":8891,"ജലാശയ":8892,"വ്യക്തമായി":8893,"ദിനം":8894,"മറക്കരുത്":8895,"പാന":8896,"##യേറെ":8897,"##േബ":8898,"സുരക്ഷാ":8899,"സേവനം":8900,"എതിര്‍":8901,"കുരുമുള":8902,"##മർ":8903,"##ത്താന്‍":8904,"##്യൂട്ടി":8905,"തോന്നുന്ന":8906,"സ്ഥലങ്ങളിൽ":8907,"ആശുപത്രി":8908,"സന്ദേശ":8909,"നിറമുള്ള":8910,"വഴിയിൽ":8911,"##ുവരുന്നത്":8912,"ആധി":8913,"നാവിക":8914,"##ൃഷ":8915,"##ൂള":8916,"##ക്കുട":8917,"വരെയ":8918,"വരെയാണ്":8919,"##ൂഢ":8920,"##‌നം":8921,"##ിക്കണമെന്ന്":8922,"##ദേവി":8923,"##ുണ്ടാവും":8924,"##ുകാലത്ത്":8925,"വ്യതിയാന":8926,"##ാരെ":8927,"മേനോ":8928,"##ജിറ്റ":8929,"ധൈര്യ":8930,"##തക":8931,"##ുപാട":8932,"ഉപഗ്രഹ":8933,"##മേൽ":8934,"അവർക്കു":8935,"##സൂത്ര":8936,"സ്റ്റേഷന":8937,"ഇരിപ്പ":8938,"##ഡിന":8939,"##റ്റിന്റെ":8940,"##കളി":8941,"ക്രമേണ":8942,"##മാണോ":8943,"പാലം":8944,"വിപുല":8945,"മൈക്ര":8946,"സാങ്കേതികവിദ്യ":8947,"പ്രഭാത":8948,"നിശബ്ദ":8949,"ഈസ്റ്റ്":8950,"##വാർ":8951,"കടക്ക":8952,"##െയ്തു":8953,"##തൃക":8954,"വിരമ":8955,"##ുക്കള്‍":8956,"സ്വഭാവം":8957,"##ണവും":8958,"വരാം":8959,"##ന്ത്രിക":8960,"##ുമായും":8961,"നഗരത്തിന്റെ":8962,"അമേരിക്കയിൽ":8963,"##ശാസ്ത്രജ്ഞ":8964,"##റങ്ങ":8965,"##ില്ലെങ്കിലും":8966,"വരാൻ":8967,"കുറവ്":8968,"രാജാക്ക":8969,"അനിയ":8970,"##ക്കാരനായ":8971,"തണ്ണ":8972,"ദശ":8973,"അറസ്റ്റ്":8974,"തൊഴിൽ":8975,"ഓല":8976,"##ുകേട്ട":8977,"##ാനായ":8978,"ഇതൊരു":8979,"ഉണ്ടാക്കി":8980,"ഇവയ്ക്ക്":8981,"ഇസ്‌ലാമ":8982,"യോ":8983,"##ില്ലല്ലോ":8984,"സംഭവിച്ച":8985,"ദിവസങ്ങളിൽ":8986,"##ുന്നതിനെ":8987,"വർണ്ണ":8988,"പൂര്‍ണ്ണ":8989,"##സാഹിത്യ":8990,"##മൻ":8991,"##ത്തോടൊപ്പം":8992,"##ിടം":8993,"തമിഴ്‌":8994,"സര":8995,"സിറ്റി":8996,"ചേര്‍ത്ത":8997,"ഹൈഡ്ര":8998,"##ഹമ്മദ":8999,"ക്വാറ":9000,"##ഷ്ണമ":9001,"കഥകളും":9002,"##ൾഡ്":9003,"കാര്യമാണ്":9004,"കരഞ്ഞു":9005,"വിദ്യാര്‍ത്ഥ":9006,"ഗ്ലാസ്":9007,"ദൗത്യ":9008,"##ന്ദ്":9009,"##ന്‍ഡ":9010,"##ാംബ":9011,"പഠനങ്ങൾ":9012,"എന്നിവയെല്ലാം":9013,"2005":9014,"വൈകാതെ":9015,"പ്രവര്‍ത്തന":9016,"റഹ്‌":9017,"##സീല":9018,"##വിന്റെ":9019,"##ാനന്തര":9020,"പരന്ന":9021,"നിർവ്വ":9022,"##കൂട്ട":9023,"##ിപ്പോള്‍":9024,"ജനനം":9025,"കൊണ്ടുപോയി":9026,"വേണ്ടിയുള്ള":9027,"##മാണെന്നും":9028,"നൂറു":9029,"മണിക്കൂര്‍":9030,"ആയിരക്കണക്കിന്":9031,"ട്വി":9032,"പമ്പ":9033,"##ാക്കോ":9034,"##ാക്കാം":9035,"##ിടുന്ന":9036,"കണ്ണൂർ":9037,"ആഫ്രിക്കൻ":9038,"അത്തരമൊരു":9039,"ഗാനം":9040,"രൂപയാണ്":9041,"സമ്മാനം":9042,"ഒരേയൊരു":9043,"അല്‍പ":9044,"##ക്തിയുടെ":9045,"##ോളിവ":9046,"##പ്‌":9047,"അതിർത്തി":9048,"##േട്ടൻ":9049,"പാശ്ചാത്യ":9050,"ലാ":9051,"##വ്യാപ":9052,"##റ്റ്സ്":9053,"മനസ്സിലാക്കിയ":9054,"യുഎസ്":9055,"##ിടി":9056,"##ത്തെപ്പറ്റി":9057,"##റിക്":9058,"##ുപരി":9059,"കണ്ണുകള്‍":9060,"പകൽ":9061,"തുണ":9062,"നേതാക്കള":9063,"ആഡ":9064,"ചത":9065,"തർക്ക":9066,"##ങ്ങിക്കിട":9067,"ചെയ്യുന്നുണ്ട്":9068,"ഓര്‍ക്ക":9069,"റഫ":9070,"വെയ്":9071,"##മണ്ഡ":9072,"കുസ":9073,"മഴയ":9074,"ഇഷ്ടപ്പെടുന്ന":9075,"ബാഹ":9076,"ഹാർ":9077,"പോകാം":9078,"##എഫ്":9079,"എന്നിരുന്നാലും":9080,"ചെയ്യാന":9081,"2007":9082,"തൂക്ക":9083,"ചുരുക്ക":9084,"ഇത്തരത്തിലുള്ള":9085,"അരുണ":9086,"##ല്ലാമ":9087,"##കളുണ്ട്":9088,"ഇന്ത്യാ":9089,"സിങ്":9090,"കൈവശ":9091,"എഴുപ":9092,"##മൊക്കെ":9093,"##ാലിന്റെ":9094,"വലിച്ചെ":9095,"പലത":9096,"ഓഫിസ":9097,"മക്കളെ":9098,"തുടർച്ചയായി":9099,"സംവിധായക":9100,"മിസ":9101,"എന്നാണു":9102,"##ാവായ":9103,"തെളിഞ്ഞു":9104,"##ിക്കുന്നതിനും":9105,"വസ്ത":9106,"##ിക്കൂട്ട":9107,"സ്വർണ":9108,"പറഞ്ഞിരുന്നു":9109,"പോലെയ":9110,"##ണമെന്നില്ല":9111,"വര്‍ധ":9112,"ഏറ്റവുമധികം":9113,"സഖ":9114,"##ീഫ":9115,"##പ്പള്ളി":9116,"കാണാതെ":9117,"##ത്തിന്‌":9118,"##ങ്ങളെക്കുറിച്ച്":9119,"അകലം":9120,"##ര്":9121,"##്യന്‍":9122,"##ാവൂ":9123,"ഭൂത":9124,"മൂന്നാമത്തെ":9125,"സോഷ്യൽ":9126,"33":9127,"ഗൃഹ":9128,"##കന്റെ":9129,"##ഡുകൾ":9130,"##ച്യ":9131,"##ാകാൻ":9132,"പ്രവാച":9133,"ലോകമ":9134,"കണ്ണട":9135,"സഞ്ചാരികള്‍ക്ക്":9136,"പറ്റാത്ത":9137,"സ്വാധീനം":9138,"കുമ്പ":9139,"വിളിക്കുന്നു":9140,"##ാസ്ത":9141,"##ിനിവേശ":9142,"##ാവുന്നത്":9143,"അനുഗ്രഹ":9144,"മീന്‍":9145,"ലോകമെമ്പ":9146,"ടെക്":9147,"വാഗ്ദ":9148,"##നിക്ക":9149,"##ിയില്ല":9150,"##ര്‍ത്ഥ":9151,"ഇതാ":9152,"ചിലത്":9153,"##പേര":9154,"നിരക്ക്":9155,"##സ്റ്റര്‍":9156,"##ഗ്രന്ഥ":9157,"ജീവിതവും":9158,"2004":9159,"വടക്ക്":9160,"നിക്ക":9161,"വൈറ്റ്":9162,"ജീവചരിത്ര":9163,"##ിക്കാനോ":9164,"തിരിച്ചറിവ":9165,"തോള":9166,"##ിതര":9167,"പൂക്കൾ":9168,"ചേര്‍ത്ത്":9169,"പേടിയ":9170,"അതിമനോഹ":9171,"തിരഞ്ഞെടുപ്പ":9172,"തനി":9173,"##ിരിക്കണം":9174,"അവയിൽ":9175,"മാഷ്":9176,"##ുണ്ടായത്":9177,"##ിമല":9178,"രേഖപ്പെടുത്ത":9179,"##നാള":9180,"##ണായക":9181,"##ണ്ടർ":9182,"പുതുമ":9183,"##ണക്കിനു":9184,"##ബന്ധന":9185,"അസോസിയ":9186,"ന്യൂന":9187,"പൂന്തോട്ട":9188,"രാധ":9189,"വേണ":9190,"കളിൽ":9191,"സ്‌ക":9192,"താഴെയുള്ള":9193,"400":9194,"##ംഘ":9195,"##ര്‍വ":9196,"കൊണ്ടുള്ള":9197,"##ിലുള്ളത്":9198,"വിയറ്റ്":9199,"മറിയ":9200,"##ാവുന്നത":9201,"ആയിരം":9202,"പാല്‍":9203,"##യുദ്ധ":9204,"പ്രസ്താവ":9205,"വിളിക്കുന്ന":9206,"മോഹൻ":9207,"സർക്കാരിന്റെ":9208,"ആർക്ക":9209,"നാന":9210,"##ാറുള്ളത്":9211,"##ത്തിനുമ":9212,"വെള്ളപ്പ":9213,"കാർബ":9214,"ആഗ്രഹിക്കുന്ന":9215,"സ്ഥിരീകര":9216,"സൊസൈ":9217,"##വാത":9218,"##കമാണ്":9219,"താരതമ്യേന":9220,"പ്രഥമ":9221,"ഹോസ്പ":9222,"##ില്":9223,"##ിനേയും":9224,"##ങ്ങളൊക്കെ":9225,"വളർന്നു":9226,"ഉപയോ":9227,"##ൽക്കത്ത":9228,"ചെടികൾ":9229,"കാര്‍ഷിക":9230,"ഉദ്യാന":9231,"വർത്ത":9232,"പതിനാറ":9233,"##ിവെള്ള":9234,"അഗ്നിപർവ":9235,"ജേ":9236,"##യാർ":9237,"##ൽ‌":9238,"##ിവ്":9239,"##മാകുന്നത്":9240,"ശുഭ":9241,"എഞ്ചിനീയ":9242,"നിലവിള":9243,"സ്ത്രീകളും":9244,"ചീഫ്":9245,"ഉരുള":9246,"കോളേജിൽ":9247,"ഇന്തോ":9248,"##‌വേ":9249,"##റ്റ്ല":9250,"അനന്ത":9251,"##ിക്കാനാക":9252,"തേന":9253,"ഗതാഗത":9254,"അഖ":9255,"##യുമ":9256,"നീതി":9257,"സുധ":9258,"##മുണ്ടായിരുന്ന":9259,"ഭി":9260,"ഒരുപോലെ":9261,"പുഴു":9262,"##ുപോലും":9263,"നോവല്‍":9264,"ഫിലിം":9265,"നഴ്‌":9266,"##ശീല":9267,"##ജ്ര":9268,"##ത്തീര":9269,"##ത്തിനൊപ്പം":9270,"##പ്രസിദ്ധ":9271,"ട്രെയിൻ":9272,"ഇടുക്കി":9273,"റാണി":9274,"##ഭംഗ":9275,"നമുക്കു":9276,"അപേക്ഷിച്ച്":9277,"##പ്പറ്റിയുള്ള":9278,"അദ്ധ്യ":9279,"##ാലു":9280,"##ടുക്കുന്ന":9281,"##പ്പെടുത്തിയത്":9282,"ശിശ":9283,"പത്താം":9284,"ബലാത്സ":9285,"##ട്ട്‌":9286,"വൈകാര":9287,"ജീവിച്ചിരുന്ന":9288,"മൂന്നോ":9289,"##സമര":9290,"തട്ടി":9291,"ശീത":9292,"##കോശ":9293,"##ുകഴിഞ്ഞ":9294,"തണുപ്പ്":9295,"ഏഷ്യാനെ":9296,"##കും":9297,"##ിലൊരു":9298,"##ംഗലം":9299,"##ത്തിലോ":9300,"ഇടയ":9301,"നിയന്ത്രണം":9302,"ഓട്ടോ":9303,"നമ":9304,"##ര്‍ഗ":9305,"ചെയ്യേണ്ട":9306,"ചേർത്തു":9307,"സാഹചര്യത്തിൽ":9308,"##ീറ":9309,"ചിത്രത്തിൽ":9310,"ഉപയോഗിക്കാം":9311,"മറന്ന":9312,"##വുമെല്ലാം":9313,"ഉള്ളൂ":9314,"##വനെ":9315,"##ിക്കപ്പെടുന്നത്":9316,"മുല":9317,"പറഞ്ഞാല്‍":9318,"ഉറക്കെ":9319,"എല്ലാവർക്കും":9320,"##ശ്രദ്ധ":9321,"വസ്തുക്കൾ":9322,"വിദൂര":9323,"##വേദന":9324,"ജനു":9325,"##നമായി":9326,"കണ്ടപ്പോൾ":9327,"##ന്ധ്ര":9328,"##സംവിധാന":9329,"പ്രദേശങ്ങളിൽ":9330,"##ടക്കമുള്ള":9331,"വ്യക്തമായ":9332,"ഉണ്ടാകുന്ന":9333,"ഒൻപ":9334,"##ായിട":9335,"കോയ":9336,"യാത്രയ":9337,"##യോഗം":9338,"പിന്നിട്ട":9339,"വന്നാൽ":9340,"സഹോദരി":9341,"ഹോസ്പിറ്റ":9342,"##ിന്യം":9343,"പരിഹാര":9344,"മാത്രമുള്ള":9345,"ജോർജ്":9346,"മെട്ര":9347,"പെട്ടെന്ന":9348,"എന്തിനാണ്":9349,"ബംഗ്ലാദേശ":9350,"നിർത്തിയ":9351,"##ാബാദ":9352,"കുറ്റം":9353,"മിനു":9354,"##ചെ":9355,"##ൈമ":9356,"##ിയുന്ന":9357,"##ാകണം":9358,"തുടങ്ങുന്ന":9359,"##സ്റ്റോറ":9360,"##ട്ടിഫ":9361,"##യോര":9362,"മഴക്കാല":9363,"വിഷാദ":9364,"##െത്തുട":9365,"അഭിനന്ദ":9366,"##ൻമാർ":9367,"മുണ്ട":9368,"മുന്ത":9369,"പിന്നിലെ":9370,"കൂട്ടായ്മ":9371,"വർഷവും":9372,"ബുദ്ധി":9373,"ജയ്":9374,"ജമാ":9375,"ദോഷ":9376,"##ർക്കു":9377,"പ്രോട്ട":9378,"അതീവ":9379,"##ാകര":9380,"##ിക്കപ്പെട്ടത്":9381,"മാർഗ്ഗ":9382,"കന്നുകാല":9383,"പാസ്":9384,"ലാവ":9385,"##നാഷ":9386,"അവയ":9387,"മലപ്പുറം":9388,"അനുഷ്ഠ":9389,"ഇവിടെയാണ്":9390,"എന്നിവയ":9391,"ഭാഗ്യം":9392,"ആശുപത്രിയിൽ":9393,"ഇത്തിരി":9394,"പലയിടത്തും":9395,"ഫാക്ട":9396,"ശുച":9397,"##കോട":9398,"##ദാസ്":9399,"സിദ്ദ":9400,"അറബി":9401,"മൈസ":9402,"ദേവി":9403,"##കുടുംബ":9404,"##മൂല":9405,"##ൊടുവ":9406,"##ുമ്പേ":9407,"മെസ":9408,"വയനാട്":9409,"തരംഗ":9410,"വേഗത്തിൽ":9411,"കോല":9412,"##ിമാർ":9413,"അതിനായി":9414,"ഇഷ്ടപ്പെട്ട":9415,"##ത്തുടർന്ന്":9416,"##യിന":9417,"##ിടത്ത്":9418,"വഴിയാണ്":9419,"ബ്രാഹ്മണ":9420,"അരുവ":9421,"##കരമാണ്":9422,"##ുണ്ടായിരുന്നത്":9423,"സുൽത്ത":9424,"അല്ലാത്ത":9425,"പുരാവസ്തു":9426,"##ൈൽ":9427,"##ല്ലൂർ":9428,"നിലനിര്‍":9429,"ഭാഗങ്ങൾ":9430,"ഉൾപ്പെടുന്നു":9431,"അണക്കെട്ട":9432,"മുറിയിൽ":9433,"പള്ളി":9434,"##ാതെയ":9435,"##ഴ്ത്ത":9436,"ആഹാരം":9437,"കണ്‍":9438,"##ുജ":9439,"##ോര":9440,"##ത്രയും":9441,"##ടുത്തത്":9442,"##റ്റിങ്":9443,"ഭാഗമായ":9444,"മുന്നേ":9445,"ഇരുവശ":9446,"##ക്കിയത്":9447,"##ടനാശ":9448,"പുറത്തിറങ്ങി":9449,"കരിങ്ക":9450,"##ിന്റേയും":9451,"സംബന്ധിച്ചിടത്തോളം":9452,"##ിവിടെ":9453,"##ക്കാന":9454,"##ങ്ങളാൽ":9455,"##ാതെയും":9456,"##െന്നാണു":9457,"##ുണ്ടാക്ക":9458,"കുറിച്ചു":9459,"##യെക്കുറിച്ച്":9460,"തീർച്ച":9461,"##വേഷണ":9462,"ഇദ്ദേഹത്തിന്റെ":9463,"ഉണക്ക":9464,"##ീർത്ത":9465,"വരെയും":9466,"അല്ലാതെ":9467,"അമേരിക്കന്‍":9468,"നേരിട്ടു":9469,"##നിന്നാണ്":9470,"കൗമാര":9471,"ഭക്ഷണവും":9472,"##ങ്ങളിലൊന്നാണ്":9473,"പൊന്ന":9474,"##ലിംഗ":9475,"വർഷങ്ങൾക്കു":9476,"മഹാഭ":9477,"##ക്കർ":9478,"##ിക്കയ":9479,"##ുമതി":9480,"##ായിരിക്കാം":9481,"##ിട്ടില്ലാത്ത":9482,"##ുകൊണ്ടിരുന്നു":9483,"നായിക":9484,"ഇവിടേക്ക്":9485,"ഐക്യരാഷ്ട്ര":9486,"തികഞ്ഞ":9487,"##ുല്‍":9488,"##ിക്കഴിഞ്ഞു":9489,"##ിതാ":9490,"സെല്‍":9491,"സങ്കടം":9492,"അർഹ":9493,"പോർച്ചുഗ":9494,"പെയിന്":9495,"ജനിതക":9496,"വമ്പ":9497,"ശസ്ത്ര":9498,"##ോയ്":9499,"നിരവധ":9500,"രാജ്":9501,"അധിനിവേശ":9502,"ആവശ്യമാണ്":9503,"##ഞ്ജു":9504,"വിഡിയേ":9505,"##ളും":9506,"##ബറ":9507,"##െയെല്ലാം":9508,"വേര്‍":9509,"കോശ":9510,"ഇരുണ്ട":9511,"ഭക്ഷണമ":9512,"ആത്മകഥ":9513,"വികസിപ്പിച്ച":9514,"##ുമില്ലാതെ":9515,"ഒത്തു":9516,"ജർമ്മ":9517,"ബൗ":9518,"##ില്ലെങ്കിൽ":9519,"അയൽ":9520,"##വരെയും":9521,"##ാറ്റിൽ":9522,"വെളുപ്പ":9523,"ശൈത്യ":9524,"കക്ഷ":9525,"ഹിൽ":9526,"##ബന്ധം":9527,"##മാരെ":9528,"എൻജ":9529,"താഴ്‌വര":9530,"ജ്ഞ":9531,"##ര്‍ദ്ദ":9532,"അറിയാത്ത":9533,"##സ്‌ക":9534,"കിടപ്പ":9535,"അടുത്തു":9536,"പോലെയാണ്":9537,"ഉൾപ്പെടുന്ന":9538,"നിർമ്മിച്ച":9539,"അസി":9540,"കാൻ":9541,"ബില്ല":9542,"##ടങ്ങിയ":9543,"##പന്ന":9544,"##ഗിര":9545,"മാറും":9546,"യാത്രിക":9547,"വിദ്യാലയ":9548,"വാർഷിക":9549,"രുചി":9550,"ചൊവ്വ":9551,"അസുഖം":9552,"മലബാർ":9553,"ഊർജ":9554,"ഭൂപ":9555,"കാപ്പ":9556,"സ്ഥലത്തെ":9557,"രോഗബാധ":9558,"മുമ്പേ":9559,"ഗവണ":9560,"ട്യൂ":9561,"##ാമെന്നും":9562,"##ിമെ":9563,"ചുഴല":9564,"കാഴ്ചകള്‍":9565,"രീതിയിലുള്ള":9566,"കണ്ടെത്തിയിട്ടുണ്ട്":9567,"പുറത്തുവന്ന":9568,"##ചകം":9569,"##പ്പെടുവ":9570,"##ിക്കൊണ്ടിരുന്നു":9571,"കാടിന്റെ":9572,"ബോർഡ്":9573,"ജയിൽ":9574,"തഴ":9575,"##ുവയ":9576,"##ുവേ":9577,"##ാടിയ":9578,"##നെറ്റ്":9579,"അയക്ക":9580,"##വരോട്":9581,"കണ്ണിൽ":9582,"സൗര":9583,"ചരിത്രകാര":9584,"ബാക്ട":9585,"ഐസ്":9586,"നന്മ":9587,"സിന്":9588,"##്യത്തിന്റെ":9589,"വ്യാജ":9590,"പഠിപ്പ":9591,"കൂട്ടത്തിൽ":9592,"വീടുകൾ":9593,"രസകരമായ":9594,"നിഗൂഢ":9595,"ആസൂത്ര":9596,"വാൽ":9597,"##ജാത":9598,"ഒഴുകി":9599,"പ്രചര":9600,"ഇന്‍സ്റ്റ":9601,"ലൈനില്‍":9602,"##പ്പെടാൻ":9603,"##ൽപന്ന":9604,"ഹോട്ടല":9605,"##ൊഴിലാള":9606,"അഗ്ര":9607,"##ോപ്പ്":9608,"കോവി":9609,"##ലിൻ":9610,"സൗത്ത്":9611,"അതുകൊണ്ടു":9612,"ജയിലിൽ":9613,"മനോരമ":9614,"വാന":9615,"##‍‍":9616,"##ാമെന്നു":9617,"വെട്ടി":9618,"വിഷയം":9619,"സിനിമാ":9620,"ക്രിസ്മ":9621,"1980":9622,"ഫോറസ്റ്റ്":9623,"##ാടെ":9624,"##വിന്":9625,"##കിട":9626,"##ിയെയും":9627,"സിനിമയുടെ":9628,"സര്‍ക്കാര":9629,"ഉൾപ്പെടെയുള്ള":9630,"എസ്റ്റ":9631,"തവള":9632,"##ിംഗ്":9633,"അവധി":9634,"സുന്ദരമായ":9635,"തകര്‍":9636,"##വെങ്കിലും":9637,"##ഘട":9638,"##ണമായ":9639,"##മനുസരിച്ച്":9640,"##ര്‍ദ":9641,"കുത്തിയ":9642,"തെക്ക്":9643,"സമയത്താണ്":9644,"ആവശ്യപ്പെട്ടു":9645,"രംഗത്തെ":9646,"വര്‍ഗ":9647,"##റുന്ന":9648,"##ൂട":9649,"##ിരം":9650,"വിസ":9651,"അതിന്‍റെ":9652,"തൊഴു":9653,"പ്രവർത്തിച്ചു":9654,"##ൊരാൾ":9655,"മൂല്യ":9656,"##ാറിയ":9657,"##വഴി":9658,"##ങ്ങളിലേക്കും":9659,"##ുവീണ":9660,"##ക്ടര്‍":9661,"അറേബ":9662,"ചെറുപ":9663,"ഭൂരിഭാഗവും":9664,"കോണ്‍ഗ്ര":9665,"അദ്ധ്യാപ":9666,"അസ്ത":9667,"ബദ":9668,"ശശ":9669,"##ച്ചില്‍":9670,"വരവ്":9671,"പ്രതീക":9672,"കേന്ദ്രീകര":9673,"കരിമ്പ":9674,"എങ്കിൽ":9675,"വാഗ":9676,"##ൗണ്ട്":9677,"##ായുടെ":9678,"##ിക്കാറില്ല":9679,"വരണ്ട":9680,"ആളുകളുടെ":9681,"പുതിയൊരു":9682,"##മുണ്ടാക":9683,"ഇതുപോലെ":9684,"ദേഷ":9685,"##വൽക്ക":9686,"##പം":9687,"##ർട്ട്":9688,"എന്നതും":9689,"കൊടുത്ത്":9690,"രാജവംശ":9691,"##യ്ക്കാണ്":9692,"വിവർത്ത":9693,"ബോര്‍":9694,"##ൊരാള്‍":9695,"കരുതുന്ന":9696,"കുമാര":9697,"പാമ്പ്":9698,"ഒഴുകുന്ന":9699,"ബ്രിട്ടീഷുകാർ":9700,"ജമാഅ":9701,"ഉല":9702,"ഗോള":9703,"നാൾ":9704,"##ഗ്വ":9705,"##ദിനം":9706,"##ഭാര":9707,"##രുമായി":9708,"ആകൃതിയ":9709,"ചരിത്രത്തിൽ":9710,"മടങ്ങി":9711,"വംശജ":9712,"ഗൗരവ":9713,"38":9714,"പ്രേത":9715,"##ുകളോ":9716,"##യ്ക്കൽ":9717,"##നങ്ങൾക്ക്":9718,"##ാഫ്ര":9719,"കമ്യൂണിസ്റ്റ്":9720,"ങ്":9721,"##റിംഗ്":9722,"##ക്കുഴ":9723,"വെങ്ക":9724,"മനുഷ്യനെ":9725,"ഇരിക്കുന്ന":9726,"ധ്യാന":9727,"##ാന്റ്":9728,"വലിച്ച":9729,"പുറത്തേക്കു":9730,"വെള്ളവും":9731,"കുട്ടികളും":9732,"ലഭിക്കുന്നത്":9733,"നിര്‍ത്തി":9734,"2001":9735,"2021":9736,"ആംഗ":9737,"കസ്റ്റ":9738,"പണമ":9739,"##മുട":9740,"##ൻസി":9741,"ഉപഭ":9742,"സ്‌കൂള്‍":9743,"##ുന്നതിനുള്ള":9744,"##മാകുന്ന":9745,"എവിടെയാണ്":9746,"ഉര":9747,"##ൃഷി":9748,"##ിനട":9749,"##ാവോ":9750,"സംയുക്ത":9751,"സർവീസ":9752,"ബീജ":9753,"അത്യാവശ്യ":9754,"##സ്‌കാരിക":9755,"ആരുമ":9756,"##മീ":9757,"##ങ്ങളുമാണ്":9758,"പ്രാവ":9759,"അതൊന്നും":9760,"അലക്സ":9761,"തൈകൾ":9762,"സാമ്രാജ്യത്തിന്റെ":9763,"ആരുടെ":9764,"പനി":9765,"മുടിയ":9766,"##ിവരുന്ന":9767,"വലിച്ചു":9768,"തെറ":9769,"##ജ്‌":9770,"ഏഷ്യാനെറ്റ്":9771,"##സാരം":9772,"##ഫെ":9773,"##ിവരും":9774,"##ിപ്പാട്ട":9775,"##ാഹി":9776,"##ിയെടുത്ത്":9777,"അപര":9778,"ലക്ഷ്മി":9779,"തൃശൂർ":9780,"മതം":9781,"പ്രേക്ഷ":9782,"വീടു":9783,"രണ്ടാഴ്ച":9784,"വേണ്ടിയാണ്":9785,"##ിറങ്ങുന്ന":9786,"സ്ഥാപിച്ച":9787,"മുഗൾ":9788,"എയര്‍":9789,"##നാര":9790,"##നഷ്ട":9791,"##ുവിൽ":9792,"പരമ":9793,"കൃതി":9794,"അപമാന":9795,"കരുതപ്പെടുന്നു":9796,"കിട്ടിയത്":9797,"വിമര്‍ശ":9798,"ശസ്ത്രക്രിയ":9799,"ഇതിഹ":9800,"ദേഷ്യ":9801,"പാദ":9802,"വ്ര":9803,"##നുമായ":9804,"##ൾച്ച":9805,"##ൊതു":9806,"##ുമ്മ":9807,"##ുമെങ്കിലും":9808,"##ങ്ങള്‍ക്ക":9809,"##ിമിന":9810,"ഉണ്ടായിരുന്നത്":9811,"പ്രവൃ":9812,"ഉപയോഗം":9813,"ഉദ്ഘ":9814,"ബാക്ടീരിയ":9815,"മിക":9816,"##സ്ക്":9817,"##തിയില്‍":9818,"ഇതിലെ":9819,"ഇവിടെയുള്ള":9820,"നാട്ടുകാർ":9821,"##ൊന്നാണ്":9822,"ആൻഡ":9823,"##നത്തിനു":9824,"##ാധി":9825,"കുറിച്ച":9826,"ജനറ":9827,"പിന്നില്‍":9828,"സഞ്ചരിച്ച":9829,"മാറ്റങ്ങൾ":9830,"ചരിത്രത്തിലെ":9831,"ഗ്രൂപ്പ്":9832,"പവിഴ":9833,"കാണാത്ത":9834,"##ുന്നതില്‍":9835,"##കൾക്കും":9836,"പേരിലാണ്":9837,"അടിച്ചു":9838,"അഭിഭാഷ":9839,"കമല":9840,"രംഗത്ത്":9841,"അയ്യപ്പ":9842,"ഈജിപ്ത":9843,"##ളിയ":9844,"##ിലിന്റെ":9845,"##ാന്‍ഡ്":9846,"##വുമല്ല":9847,"പദ്ധതിയുടെ":9848,"ടീച്ചര്‍":9849,"അളവിൽ":9850,"ക്രമീകര":9851,"മഹാമാര":9852,"അജ്ഞാത":9853,"മഹാഭാര":9854,"##ുവായ":9855,"മേധ":9856,"##ര്‍ഷം":9857,"വൈകിട്ട്":9858,"##ൊഴുകുന്ന":9859,"##ശേഖര":9860,"എലി":9861,"റൊ":9862,"##മിട":9863,"കണ്ടിട്ടില്ല":9864,"പാർക്ക":9865,"ബെൽ":9866,"ഇസ്രായ":9867,"##േര്‍":9868,"##ീല്‍":9869,"##ജിയ":9870,"സ്വാമി":9871,"അയച്ചു":9872,"നാടകം":9873,"ഉറപ്പുവ":9874,"ജൈന":9875,"##ക്കൊരു":9876,"കടലിൽ":9877,"തീരത്ത്":9878,"വൈദ്യുത":9879,"ഗൂഢ":9880,"ഫ്‌ള":9881,"##ോഷ്":9882,"##ുകേ":9883,"വരില്ല":9884,"പറയാനുള്ള":9885,"കണക്കിലെ":9886,"കമ്മ്യൂണിസ്റ്റ്":9887,"കൊട്ടാരം":9888,"നിശ്ചിത":9889,"നേതാവ്":9890,"പ്രക്ഷോഭ":9891,"##യട":9892,"കുമാർ":9893,"ഫോട്ടോഗ്രാഫ":9894,"കൊളംബ":9895,"ഒരി":9896,"സ്ഫോട":9897,"##ദ്‌":9898,"തീര്‍ത്ത":9899,"ഉടലെ":9900,"##ശേഷി":9901,"ബംഗാൾ":9902,"പരിപാടി":9903,"ദാരി":9904,"##തെല്ലാം":9905,"##ഷണം":9906,"##ഫറ":9907,"##നിർമ്മ":9908,"രാജീവ്":9909,"##പുത്ര":9910,"##പുസ്ത":9911,"വേഷം":9912,"##സിഡ":9913,"ചോദ്യത്തിന്":9914,"സച്ചിൻ":9915,"മഹാരാജ":9916,"മണം":9917,"റൂട്ട":9918,"ശിര":9919,"##മൊഴ":9920,"##ോണ":9921,"ഉണ്ടാക്കുന്ന":9922,"സാധ്യതയുണ്ട്":9923,"##ക്ഷേത്രം":9924,"മദ്യപ":9925,"ടാഗ":9926,"ലാബ":9927,"ലംഘ":9928,"വിക്ഷേപ":9929,"##ക്കുട്ടി":9930,"ഇറച്ച":9931,"പാചക":9932,"താഴേക്ക്":9933,"മത്സരത്തിൽ":9934,"ഒഴു":9935,"പങ്ക്":9936,"ഫോസ":9937,"##മാസ":9938,"കോര്‍":9939,"##ോട്ടും":9940,"വായിക്കാം":9941,"##കാലിക":9942,"##തലത്തിൽ":9943,"##ിച്ചതിന്റെ":9944,"കുഞ്ഞിന്റെ":9945,"കണ്ടെത്താൻ":9946,"##ത്തിലേറെ":9947,"##ത്തിലേക്കും":9948,"വസ്തുത":9949,"റില":9950,"##ത്തിലെത്ത":9951,"ചേച്ചി":9952,"ചെയ്താൽ":9953,"രാജ്യങ്ങൾ":9954,"##ജിത്ത്":9955,"പുരാണ":9956,"##ിക്കുറിപ്പ":9957,"സുക":9958,"ക്ഷീണ":9959,"കാര്യത്തില്‍":9960,"മലയാളത്തിൽ":9961,"പകർത്ത":9962,"ഡൽഹി":9963,"ശ്യ":9964,"##ക്കാട്ട":9965,"സ്വീ":9966,"##ുകൾക്കും":9967,"പെട്ര":9968,"##സ്റ്ററ":9969,"കഴിയാതെ":9970,"ഒറ്റപ്പെട്ട":9971,"പാമ്പിനെ":9972,"ബിരുദം":9973,"ഇവര":9974,"എരുമ":9975,"##കൃത്യ":9976,"സോള":9977,"##വച്ച":9978,"##സ്റ്റിൽ":9979,"##േശ്വര":9980,"മനുഷ്യാവകാശ":9981,"കാഴ്ചയാണ്":9982,"സാന്ദ്ര":9983,"കുടുംബത്തിലെ":9984,"ഹൈദര":9985,"പെൺകുട്ടി":9986,"ദൃശ്യങ്ങൾ":9987,"കാട്":9988,"വട്ടം":9989,"##നയും":9990,"##നഗര":9991,"##ചര":9992,"##ക്കാരു":9993,"##ിക്കല":9994,"##ങ്ങളുമ":9995,"മറ്റെ":9996,"വിളമ്പ":9997,"189":9998,"ആരംഭിക്കുന്നത്":9999,"കൊടുമ":10000,"ഭർത്താവ്":10001,"എപ്പോഴ":10002,"റിവ":10003,"കോണ":10004,"##ീയമായ":10005,"വിശകല":10006,"പൈതൃക":10007,"##ാലോചന":10008,"##ികൊണ്ട്":10009,"ഹരിയ":10010,"##നിയുടെ":10011,"##ചി":10012,"##ണ്ടോ":10013,"##പ്പെട്ടിട്ടുണ്ട്":10014,"ചെയ്യുമ്പോൾ":10015,"നടത്തുന്നു":10016,"പ്രസിദ്ധമായ":10017,"ചൊല്ല":10018,"ഫേസ്ബുക്ക്":10019,"മൃതദേഹം":10020,"ക്വാറന്റ":10021,"37":10022,"ആന്ധ്ര":10023,"##പടിഞ്ഞ":10024,"##ർ‌":10025,"##പ്പിട":10026,"എന്നതു":10027,"##ുണ്ടാക്കി":10028,"##്വാനം":10029,"ഭാഗ്യ":10030,"അതിക്രമ":10031,"പിന്തുടര":10032,"ധൈര്യം":10033,"സിയ":10034,"##ക്ഷണം":10035,"സ്റ്റേഷൻ":10036,"അരയ":10037,"യുവതി":10038,"കപ്പല":10039,"കുറിപ്പുകള്‍":10040,"ഉപയോക്ത":10041,"ഹോമ":10042,"##െയിന":10043,"കുറിച്ചും":10044,"വളര്‍ന്ന":10045,"##മുണ്ടായ":10046,"അവരോട്":10047,"മുൻപേ":10048,"അനുയോജ്യമായ":10049,"##ാരോഗ്യ":10050,"അപ്പുറ":10051,"ത്യ":10052,"റാ":10053,"##ിനോടു":10054,"##ക്തമായ":10055,"മഴയും":10056,"കിലോഗ്രാം":10057,"ആര്‍ക്കും":10058,"##ിട്ടുണ്ടോ":10059,"##്‍ന്ന":10060,"##പ്പടെ":10061,"##ാലേ":10062,"വർഷമായി":10063,"185":10064,"മരുന്ന്":10065,"പ്രകാശം":10066,"മണിക്ക്":10067,"ഞായറ":10068,"##വതി":10069,"##ത്രി":10070,"##ുവർഷ":10071,"ശേഷവും":10072,"ടീച്ചർ":10073,"ഉത്തരവാദിത്ത":10074,"ഹാ":10075,"##മറിയ":10076,"സംസ്‌":10077,"സംഖ്യ":10078,"സ്വാമ":10079,"##ത്തിലായി":10080,"വീടിനു":10081,"കപ്പൽ":10082,"##ോഗസ്ഥ":10083,"ഗാർഡ":10084,"##രിൽ":10085,"അനാഥ":10086,"സ്റ്റേ":10087,"##കർക്ക്":10088,"വിളവെടുക്ക":10089,"##മേട":10090,"##ിക്കുന്നതായി":10091,"##ിച്ചതായി":10092,"ഇലകൾ":10093,"##ിക്കുമെന്നും":10094,"പുതുതായി":10095,"കംപ":10096,"##വൃത്ത":10097,"##പറയ":10098,"##ിയര്‍":10099,"##കളുള്ള":10100,"വ്യാഖ്യാന":10101,"മൈത":10102,"സാംസ്‌കാരിക":10103,"ഷമ്മി":10104,"##രചന":10105,"##ണത":10106,"##വിച്ച്":10107,"ചെയ്തിരുന്ന":10108,"##ുകൊണ്ടു":10109,"##ിക്കുട്ട":10110,"ടെറ":10111,"പടിഞ്ഞാറ്":10112,"ലായ":10113,"##ക്കറിയ":10114,"വരവ":10115,"കാണണം":10116,"നിരൂപ":10117,"മിഴ":10118,"പതിമൂ":10119,"മുസ്‌ലിം":10120,"ശൂന്യ":10121,"##ില്ലെന്ന":10122,"മേഖലയില്‍":10123,"##നീളം":10124,"ധ്രുവ":10125,"##പുറ":10126,"##േഴ":10127,"##ുമി":10128,"പങ്കു":10129,"കമ്പോ":10130,"188":10131,"സ്വീകരിച്ചു":10132,"പേരുള്ള":10133,"വന്യമൃഗ":10134,"ദില്ലി":10135,"ഊർജ്ജ":10136,"നിങ്ങള്‍ക്ക്":10137,"##രിക്ക്":10138,"പഠിക്കാൻ":10139,"##ലൈന്‍":10140,"1990":10141,"പുനർ":10142,"ചെടികള്‍":10143,"ലീറ്റർ":10144,"##തന":10145,"##കളായ":10146,"യാത്രാ":10147,"മേൽക്ക":10148,"ഒളി":10149,"##ിനക":10150,"എന്നുപ":10151,"ലിംഗ":10152,"വരുമ്പോള്‍":10153,"ഗല":10154,"##ോഴ":10155,"##ദാസ":10156,"കഴിക്കാൻ":10157,"തിരുത്ത":10158,"കമ്മി":10159,"##ത്തിനെതിരെ":10160,"യും":10161,"##ാപ്പം":10162,"##ോശ":10163,"##ലഭ":10164,"##ങ്ങളുടേയും":10165,"##ത്തെറ":10166,"##ത്തിൽപ്പെട്ട":10167,"സാധിച്ചു":10168,"##മേശ":10169,"പുഞ്ചിര":10170,"തലച്ചോറ":10171,"മൂവ":10172,"അകത്തേക്ക്":10173,"വരുത്തി":10174,"പെണ്‍കുട്ടി":10175,"##ീര്‍ഘ":10176,"##ളിക":10177,"##യാൻ":10178,"##ിനിര":10179,"ഉണ്ടായിര":10180,"ഒന്നായി":10181,"##സാക്ഷ":10182,"ഖുർആ":10183,"മകളുടെ":10184,"##താമ":10185,"##ക്കറ്റ്":10186,"##ങ്ങളേയും":10187,"മുങ്ങ":10188,"മൂത്ര":10189,"##വ്വം":10190,"ചെലവ്":10191,"##ിയേ":10192,"##ങ്ങളുമുണ്ട്":10193,"##ഞ്ഞത്":10194,"കണ്ടില്ല":10195,"ചിത്രത്തിന്റെ":10196,"അടുത്തിടെ":10197,"പുസ്തകത്തിന്റെ":10198,"##ാക്കളുടെ":10199,"##ദിവസ":10200,"തന്മ":10201,"##ഫോമ":10202,"##ാനിട":10203,"മാങ്ങ":10204,"വ്യോമ":10205,"കാലത്താണ്":10206,"കഴിഞ്ഞാല്‍":10207,"മഹേന്ദ്ര":10208,"ശക്തമായി":10209,"ഷൂട്ടി":10210,"കത്തി":10211,"വഞ്ച":10212,"##നത്തിന":10213,"##ോഡ":10214,"##മോഹ":10215,"##പല":10216,"##ന്‍പ":10217,"കാണാത":10218,"##ടുക്കാൻ":10219,"എത്തിച്ചേ":10220,"കാട്ടാന":10221,"മൃഗശാല":10222,"കഴിവ്":10223,"##ാവശ്യമായ":10224,"തായ്‌ല":10225,"അംശ":10226,"മോട്ട":10227,"##ർജി":10228,"##ുമാസം":10229,"പുറപ്പെടുവ":10230,"നൽകണം":10231,"ബിഗ്":10232,"ദുർ":10233,"വിവരങ്ങള്‍":10234,"ശതമാനവും":10235,"ഇത്തരമൊരു":10236,"പബ്ല":10237,"##ടികൾ":10238,"പത്തൊ":10239,"അശോക":10240,"##ാശ്ശ":10241,"##വിപ":10242,"##ലിസ്റ്റ":10243,"ചുറ്റി":10244,"വർഷങ്ങളായി":10245,"ശാസ്ത്രജ്ഞർ":10246,"ചുംബ":10247,"മൊഴ":10248,"##ക്രി":10249,"##ിലായ":10250,"##ുമത":10251,"##ങ്കോ":10252,"##്വല":10253,"എന്നിവയെ":10254,"ശ്രദ്ധിക്കണം":10255,"187":10256,"##ദ്വീപ്":10257,"##രുമ്പോൾ":10258,"സന്യാസ":10259,"അരുമ":10260,"ഇതി":10261,"##ിച്ചാലും":10262,"കുറിപ്പ്":10263,"##ുറു":10264,"പൂർത്ത":10265,"രൂപയും":10266,"അതിശ":10267,"പദവ":10268,"##കുമാർ":10269,"##രൂപം":10270,"##പഞ്ചായ":10271,"ദാരിദ്ര":10272,"ഞായറാഴ്ച":10273,"##ിക്കണമെന്ന":10274,"##ുമാറ്റ":10275,"##ാത്രി":10276,"പെരിയ":10277,"ഭാഗത്തു":10278,"ബ്രി":10279,"ആളെ":10280,"ഇഷ്ടമുള്ള":10281,"സന്ദർഭ":10282,"രാമചന്ദ്ര":10283,"##ാഖ്":10284,"##രുമ്പോള്‍":10285,"48":10286,"ശീ":10287,"##ത്തവള":10288,"കുളി":10289,"ഭാഗങ്ങളിൽ":10290,"മകനെ":10291,"ഡോക്ടറുടെ":10292,"കായിക":10293,"ഉത്തമ":10294,"സ്‌കൂളില്‍":10295,"ഇക്കാര്യം":10296,"പ്രകടന":10297,"ഗുജറ":10298,"##നേര":10299,"##േനെ":10300,"##ക്കില്‍":10301,"##ുടേ":10302,"##ക്കിങ്ങ":10303,"കാത്ത്":10304,"ചേര്‍ന്നു":10305,"വന്നിരുന്നു":10306,"##ുകാരനായ":10307,"##ിനിമയ":10308,"ഹൈക്കോട":10309,"തോന്നിയത്":10310,"##ിപ്പുഴ":10311,"ഇസ്ലാമിക":10312,"ഒഡ":10313,"ഹാള":10314,"##മിട്ട":10315,"##ിയുണ്ട്":10316,"##ര്‍ട്ട":10317,"##ികളോട്":10318,"##ുപൊ":10319,"##ഡ്ഡ":10320,"##റ്റിക്":10321,"അനുബന്ധ":10322,"##േയിരുന്നു":10323,"##ത്വവും":10324,"അണ്ണ":10325,"ചാ":10326,"യിൽ":10327,"റെയില്‍":10328,"##കൈ":10329,"##ക്കണ്ണ":10330,"കണ്ടാല്‍":10331,"ഉപേക്ഷിച്ച്":10332,"അര്‍ത്ഥ":10333,"##ാകൃതിയ":10334,"മലയാളത്തിലെ":10335,"കണക്കെ":10336,"കഴിച്ച്":10337,"വ്യത്യാസം":10338,"പ്രസാധ":10339,"മടങ്ങിയ":10340,"ചവിട്ട":10341,"ബാര":10342,"##ാത്തിമ":10343,"സമയവും":10344,"ക്ഷേത്രത്തിൽ":10345,"ടാങ്ക":10346,"ഇറ്റല":10347,"ഡാർ":10348,"##ർക":10349,"തിരിഞ്ഞ":10350,"##ത്തേക്കുള്ള":10351,"##ോടെ":10352,"മകന്റെ":10353,"യാഥാർഥ":10354,"എവിട":10355,"##ുണ":10356,"##ംപ്":10357,"##ിസഭ":10358,"പതിനെട്ട":10359,"ഒക്ടോബ":10360,"നാണയ":10361,"ബിസിനസ്":10362,"ആഖ്യാന":10363,"##ോഷ":10364,"##െയര്‍":10365,"##ണമെങ്കില്‍":10366,"കഥയുടെ":10367,"##ിത്തിര":10368,"വർണ":10369,"##ാനിഷ്":10370,"റിസർ":10371,"പാര്‍ട്ട":10372,"ചൂണ്ടിക്കാട്ട":10373,"മെക്സിക്കോ":10374,"55":10375,"ചൗ":10376,"നാൽ":10377,"##ുയ":10378,"##ുരു":10379,"##ഖിത":10380,"##ക്കന":10381,"##റ്റര്‍":10382,"##ാവിൽ":10383,"##ോട്ടെ":10384,"സഹകരണ":10385,"നേരിയ":10386,"ഞാനൊരു":10387,"ചീത്ത":10388,"ഇടതുപക്ഷ":10389,"ഗവർണ":10390,"##ബറിൽ":10391,"##ൈന്‍":10392,"##ാണിവ":10393,"##ാനായിരുന്നു":10394,"##ള്‍ഫ":10395,"##ിനെതിരെ":10396,"മണ്ണില്‍":10397,"വെളിപ്പെടുത്ത":10398,"പന്ത്രണ്ട":10399,"ഉന്മ":10400,"കൊൽക്കത്ത":10401,"##ാന്‍സ്":10402,"വേള":10403,"##ാസ്ക":10404,"##ധാനം":10405,"കണ്ണീര":10406,"വളർത്തുന്ന":10407,"അത്യാവശ്യം":10408,"ഭരണകൂടം":10409,"നിർവ്വഹ":10410,"മനം":10411,"##സ്തവ":10412,"കൈയിൽ":10413,"##വർക്കു":10414,"ഒന്നുമില്ല":10415,"മുന്നേറ്റ":10416,"ഒരാളുടെ":10417,"##പിടിച്ച":10418,"വാദം":10419,"ഫേസ്ബുക്ക":10420,"##സൗകര":10421,"ഏരിയ":10422,"മർദ്ദ":10423,"##വട്ടം":10424,"##പ്പോ":10425,"##ടിയായി":10426,"തൊണ്ട":10427,"വീടുകളിൽ":10428,"പ്രതികരണ":10429,"പിൽക്കാലത്ത്":10430,"ചുഴലിക്ക":10431,"മത്ത":10432,"##സൻ":10433,"##ഹാർ":10434,"##ാവിലെ":10435,"സമാഹാര":10436,"##ത്തേക്ക":10437,"കീടനാശ":10438,"ജില്ലയുടെ":10439,"തീവണ്ട":10440,"സാമ്രാജ്യം":10441,"പകുതിയ":10442,"സമ്പ്രദായ":10443,"മറ്റൊന്ന":10444,"പൂക്കള്‍":10445,"ക്ഷേത്രത്തിന്റെ":10446,"മതില":10447,"കൂടുതലാണ്":10448,"മുറിയില്‍":10449,"##ാദ്യം":10450,"ബിജെപി":10451,"മസ്ജി":10452,"ടീം":10453,"##തട":10454,"##ഫിക്":10455,"##ങ്ങുന്നു":10456,"##ണമായിരുന്നു":10457,"വെള്ളത്തില്‍":10458,"സ്ത്രീയുടെ":10459,"പതിപ്പ":10460,"പാടി":10461,"വ്യത്യസ്തമായി":10462,"ആരോഗ്യം":10463,"##ക്കൂട്ടം":10464,"##കുറ":10465,"##ദണ്ഡ":10466,"##റിയാത്ത":10467,"കാണിക്കുന്ന":10468,"രണ്ടര":10469,"അനിവാര":10470,"വേണ്ടത്ര":10471,"ജലസേ":10472,"അടിസ്ഥാനത്തിൽ":10473,"വേറിട്ട":10474,"##ുത്":10475,"##വിഷൻ":10476,"##ാഗാന്ധ":10477,"##ട്ടിൻ":10478,"സാധാര":10479,"ഉറപ്പിച്ചു":10480,"പുനഃ":10481,"താഴ്ന്ന":10482,"വിലാസത്തില്‍":10483,"##ഫിയ":10484,"##ഭ്ര":10485,"##ഞ്ജന":10486,"ജീവന്‍":10487,"ഗ്രാമപഞ്ചായ":10488,"##ിത്തുട":10489,"തയ്യാറെ":10490,"വലുപ്പം":10491,"സന്നദ്ധ":10492,"ആധിപ":10493,"ചുവര":10494,"##സിന":10495,"##ുമായിരുന്ന":10496,"##സംഘടന":10497,"ചൂടു":10498,"കിഴക്ക്":10499,"തയ്യാറാക്കിയ":10500,"യഥാര്‍ത്ഥ":10501,"ജനപ്രിയ":10502,"വന്നെ":10503,"##ുൽപാദ":10504,"##കമ്പ":10505,"##ന്തം":10506,"##ാഹം":10507,"തലയ":10508,"വറ്റ":10509,"സ്‍":10510,"##നിവ":10511,"##ഗാമ":10512,"മാട":10513,"ജീപ്പ്":10514,"പഴക്ക":10515,"മൃദ":10516,"ബ്ലൂ":10517,"ഉന്നയ":10518,"പ്രതിഭാസ":10519,"തള്ളി":10520,"ബുക്ക":10521,"##ഗാന":10522,"##ഫർ":10523,"##ൊത്ത്":10524,"##ദ്ദേശം":10525,"##ിപ്പറ":10526,"തുടര്‍ന്ന":10527,"അധ്യായ":10528,"നിർവ":10529,"##ാമ്പ്":10530,"പ്ലാൻ":10531,"പ്രായമായ":10532,"തൂണ":10533,"പിറക":10534,"##ത്തുടങ്ങി":10535,"##വിശ്വാസം":10536,"##ക്കിറങ്ങി":10537,"അല്‍പം":10538,"ഫാത്തിമ":10539,"##മഞ്ഞ":10540,"##ൊറ":10541,"##ിച്ചപ്പോള്‍":10542,"##ുമേ":10543,"ചെടിയുടെ":10544,"എഴുത്ത്":10545,"ലൈറ്റ്":10546,"പുലർത്ത":10547,"##പ്പറ്റിയും":10548,"തീയതി":10549,"തിരുവിതാംകൂ":10550,"##ത്തെക്കുറിച്ചുള്ള":10551,"കൂറ്റൻ":10552,"##ുണ്ടെങ്കിൽ":10553,"##നുബന്ധ":10554,"കൈകൾ":10555,"വരുത്തിയ":10556,"പൊതുജന":10557,"നടപടികൾ":10558,"##മാറ്റം":10559,"ഏര്‍":10560,"##തോളം":10561,"##ിള്‍":10562,"##ീഡ്":10563,"##ിക്കട്ടെ":10564,"##ുന്നതുവരെ":10565,"##കൂട്ടി":10566,"##മാണെന്ന":10567,"കാഴ്ചകളും":10568,"##മാക്കുന്നു":10569,"##രികിൽ":10570,"##ുകാലം":10571,"കാത്തിരിപ്പ":10572,"ജാന":10573,"##വുകൾ":10574,"##മനു":10575,"##ത്തായിരുന്നു":10576,"##ുമാസ":10577,"##ുള്ളി":10578,"പുണ്യ":10579,"ഇതെ":10580,"കൈമാറ":10581,"കൊണ്ടിരുന്നു":10582,"ആറാം":10583,"ഒരുമിച്ചു":10584,"ചക്രവ":10585,"##മുയ":10586,"##മാണെങ്കിലും":10587,"സ്ഥലങ്ങൾ":10588,"നല്‍കുന്നത്":10589,"ബോസ്":10590,"##ൊക്കെയും":10591,"##ത്തിനുള്ളില്‍":10592,"##ദൃശ്യ":10593,"ജ്ഞാന":10594,"​​​":10595,"##സ്സിന്റെ":10596,"നിലപാട്":10597,"കുട്ടികള്‍ക്ക്":10598,"ഉടമ്പ":10599,"മുറിച്ചു":10600,"ടിബ":10601,"മകന്‍":10602,"ചുരുക്കം":10603,"റെയിൽ‌വേ":10604,"ചിഹ്":10605,"മുന്നറിയിപ്പ്":10606,"ഇങ്ങനെയാണ്":10607,"ഇക്കൂട്ട":10608,"ശ്വസ":10609,"##നൂ":10610,"##ുക്കൾ":10611,"##ാതീത":10612,"##ികളുണ്ട്":10613,"##റിങ്ങ":10614,"വരയ്ക്ക":10615,"##സ്ഥാനിലെ":10616,"##റുക്ക":10617,"മൂന്നാർ":10618,"കറവ":10619,"നോവലിന്റെ":10620,"എഴുത്തുകാരൻ":10621,"അതുകൊണ്ടാണ്":10622,"ഹിമാച":10623,"ഉദ്യോഗസ്ഥ":10624,"തിരുവിതാംകൂർ":10625,"റബേക്ക":10626,"ചിത്രകാര":10627,"##ുകാരി":10628,"അനുഭവങ്ങള്‍":10629,"ആവശ്യമുള്ള":10630,"##ാഘാത":10631,"ഗൂഗ":10632,"##ിപ്പുറം":10633,"##ത്തിന്റേയും":10634,"34":10635,"ചിറ്റ":10636,"കുത്തി":10637,"##്വത":10638,"ചെയ്യാനും":10639,"##ോളൂ":10640,"##പോവ":10641,"ചോല":10642,"എഴുതിയത്":10643,"##വരുടെയും":10644,"രചിച്ച":10645,"##വത്കര":10646,"##ക്കറ്റ":10647,"പ്രാർഥ":10648,"സ്വർണ്ണ":10649,"##പ്പെടാത്ത":10650,"തീർക്ക":10651,"തലേ":10652,"റോഡിൽ":10653,"1000":10654,"ഇക്കാല":10655,"##ഷ്മ":10656,"##ുവാനും":10657,"പിള":10658,"തുടര്‍ന്നു":10659,"തോതിൽ":10660,"വിളി":10661,"മേരി":10662,"ലക്ഷണ":10663,"##ിക്കുന്നതിന്റെ":10664,"ആത്മവിശ്വാസ":10665,"##കൊണ്ടു":10666,"തദ്ദേശീയ":10667,"'-":10668,"മടക്ക":10669,"മക്കള്‍":10670,"വാലി":10671,"##തെന്ന":10672,"##ാവട്ടെ":10673,"പോന്ന":10674,"വരാന്ത":10675,"ദിവ്യ":10676,"രൂപക":10677,"ഒന്നിച്ചു":10678,"ബെംഗ":10679,"##ുപോല":10680,"പെരുമാറ":10681,"പുന്ന":10682,"##സ്ഥാനം":10683,"##ികള്‍ക്കും":10684,"##ിസ്ട്ര":10685,"ഉദാഹരണത്തിന്":10686,"അടിച്ചമ":10687,"ദേഷ്യം":10688,"അങ്ങ്":10689,"തത്ത":10690,"തടി":10691,"നഴ്സ":10692,"മ്യ":10693,"##നങ്ങളുടെ":10694,"##ോഡ്":10695,"##പഥ":10696,"നിഷ്":10697,"എന്തൊക്കെയോ":10698,"രൂപപ്പെട്ട":10699,"എന്നിവരുടെ":10700,"പടർന്നു":10701,"ഡ്രൈവ":10702,"ആദിവ":10703,"ശുദ്ധജല":10704,"##ഹായുദ്ധ":10705,"റൺ":10706,"പറയുക":10707,"##സ്സിൽ":10708,"##ഭവം":10709,"അടിവ":10710,"ക്രിമിന":10711,"സ്ഥാപിച്ചു":10712,"സ്ഥാപനം":10713,"##ിക്കൊണ്ടു":10714,"തലസ്ഥാനമായ":10715,"പിന്നീടുള്ള":10716,"അഡ്വ":10717,"പൂർണ്ണമായും":10718,"##സമയത്ത്":10719,"റാണ":10720,"##റുകളും":10721,"മുനി":10722,"##ക്കുണ്ട":10723,"ഗ്രീൻ":10724,"പോകുമ്പോൾ":10725,"അടക്ക":10726,"##ർന്നത്":10727,"സ്റ്റു":10728,"1999":10729,"ആദിവാസ":10730,"##രാജ്":10731,"സ്വദേശി":10732,"വിസ്തീർ":10733,"യൂണിയൻ":10734,"ശ്രീകോവ":10735,"##10":10736,"##ുമര":10737,"മാഗ":10738,"കാഞ്ഞ":10739,"##േറ്റർ":10740,"പകർത്തിയ":10741,"##ിച്ചതെന്ന്":10742,"ബഹു":10743,"ഗോപുര":10744,"വേനല്‍":10745,"പശുക്കളെ":10746,"തപ":10747,"##മറ":10748,"##ിലുണ്ടായിരുന്ന":10749,"രാജാവിന്റെ":10750,"സഹകര":10751,"എന്നിവര":10752,"അമൃത":10753,"വീടും":10754,"സമൂഹത്തിന്റെ":10755,"പത്തനം":10756,"പദവി":10757,"തുടരുന്നു":10758,"എതിർ":10759,"42":10760,"ധർമ്മ":10761,"മേര":10762,"മഞ്ച":10763,"##വട":10764,"##യാണിത്":10765,"##ഡം":10766,"##ത്തെയാണ്":10767,"രാജകുമാര":10768,"നൽകുക":10769,"ബ്രിട്ടിഷ്":10770,"##ുന്നുണ്ടോ":10771,"ജർമൻ":10772,"നല്ക":10773,"ആഡംബര":10774,"ഒരെ":10775,"ഡാം":10776,"ധാന്യ":10777,"നെയ്യ":10778,"##നത്തില്‍":10779,"##ലേ":10780,"##ങ്ങളുമെല്ലാം":10781,"കലർന്ന":10782,"ഗുണം":10783,"അഞ്ചാം":10784,"ഭൂരിഭാഗം":10785,"റിസോർട്ട":10786,"ദീര്‍ഘ":10787,"രഞ്ജ":10788,"റബർ":10789,"##ൂടി":10790,"##ാനായില്ല":10791,"##ുപ്ത":10792,"##ക്കെട്ട്":10793,"മരിയ":10794,"##ക്കാരന്റെ":10795,"കഴിഞ്ഞപ്പോൾ":10796,"മുറിച്ച":10797,"ഉദയ":10798,"മന്ത്രിസഭ":10799,"വില്ലേജ":10800,"ഓളം":10801,"ധരിച്ച":10802,"##വച്ച്":10803,"##യുടേയും":10804,"##ൊരിട":10805,"##ന്‍ഡ്":10806,"##ുകളിലാണ്":10807,"രൂപത്തിൽ":10808,"ആശ്വസ":10809,"##സ്വാമി":10810,"250":10811,"##മ്പുഴ":10812,"അവധിക്കാല":10813,"?​":10814,"ഓമന":10815,"ടീ":10816,"വഴിയും":10817,"നൽകും":10818,"നടത്തുകയും":10819,"2002":10820,"കണക്കുകൾ":10821,"കാശ്മ":10822,"##ുപയോഗിച്ച്":10823,"തേനീച്ച":10824,"പത്തനംതിട്ട":10825,"ഫയ":10826,"##ുമാരി":10827,"അവയ്ക്ക്":10828,"ജനങ്ങളെ":10829,"അനിൽ":10830,"പിന്നീടു":10831,"തിരിച്ചറിഞ്ഞു":10832,"കൊല്ലപ്പെട്ട":10833,"നിലവിലുള്ള":10834,"നോക്കിയാൽ":10835,"പദം":10836,"പോവുന്ന":10837,"കര്‍ഷക":10838,"ബോംബെ":10839,"പാർട്ടിയുടെ":10840,"സ്മാരക":10841,"സിന്ധ":10842,"ഇന്ധ":10843,"പകല":10844,"##സൽ":10845,"##ഗോപ":10846,"##ള്ളു":10847,"##ാമിന്റെ":10848,"അതെല്ലാം":10849,"വീതിയ":10850,"##ാജ്യ":10851,"##ത്തിയും":10852,"എല്ലായിട":10853,"സ്ത്രീകള":10854,"പുസ്തകങ്ങള്‍":10855,"##വെച്ച":10856,"ഹൈസ്":10857,"മാലാഖ":10858,"ചുരുങ്ങിയ":10859,"ഇരുപതാം":10860,"അഴിമ":10861,"ഭംഗി":10862,"##നുമായി":10863,"##തന്നെയാണ്":10864,"##റുകള്‍":10865,"##ക്കാ":10866,"##ിക്കുമ്പോഴും":10867,"##തിമ":10868,"കൊഴു":10869,"##യാണ്‌":10870,"ഉണ്ടായത്":10871,"##ക്കുന്നതിന":10872,"തുടങ്ങിയിരുന്നു":10873,"ഭൂപ്ര":10874,"##ുന്നതിനാൽ":10875,"റദ്ദ":10876,"##ോക്":10877,"##കപ്പ":10878,"അവാർഡ":10879,"##കളങ്ക":10880,"##ുപോവ":10881,"##മിറ":10882,"സഹായിക്കുന്നു":10883,"##ിക്കുന്നതിനുള്ള":10884,"വാങ്ങാൻ":10885,"ചന്ദന":10886,"ദശലക്ഷം":10887,"ആദിവാസി":10888,"ആപ്പി":10889,"ഇടി":10890,"ത്വ":10891,"##ഭി":10892,"##ുമായിരുന്നില്ല":10893,"ചെക്ക്":10894,"##പ്തി":10895,"##ോർണിയ":10896,"മേള":10897,"##ിച്ചിരിക്കുകയാണ്":10898,"നോക്കൂ":10899,"പത്രപ്രവർത്ത":10900,"ആകാശം":10901,"##ക്രം":10902,"അവിടെയുള്ള":10903,"അടുത്തേക്ക്":10904,"പ്രത്യേകിച്ചും":10905,"മത്സരം":10906,"##സ്തുത":10907,"എഴുതുന്നു":10908,"കുഞ്ഞുങ്ങൾ":10909,"ഭാര്യയും":10910,"ഗോപാല":10911,"മിശ്രിതം":10912,"ജസ്റ്റിസ്":10913,"##മണ്ണ":10914,"പുത്ത":10915,"##തുറ":10916,"##ാത്തത്":10917,"ഇതൊന്നും":10918,"മൃഗസംരക്ഷണ":10919,"പണിക്ക":10920,"##ുമുഖ":10921,"ദമ്പത":10922,"ലോകമഹായുദ്ധ":10923,"##ുത്തി":10924,"##മട":10925,"##ത്തൊഴിലാള":10926,"##ുകെട്ട":10927,"പലർക്കും":10928,"നോക്കുമ്പോൾ":10929,"ജപ്പാൻ":10930,"കത്ത്":10931,"മടിയ":10932,"##വിന":10933,"##ൻ‌":10934,"##ച്ചുവ":10935,"##മ്പാല":10936,"##ുണ്ടെന്നും":10937,"കാണുന്നില്ല":10938,"##ുകയുള്ളൂ":10939,"##മാക്കുന്ന":10940,"##ായിട്ടാണ്":10941,"അങ്ങനെയൊരു":10942,"മഞ്ഞുപാള":10943,"ചൂണ്ടിക്കാണ":10944,"ടൗണ":10945,"നല്ലതാണ്":10946,"പ്രായോഗ":10947,"ബോധം":10948,"റോമൻ":10949,"മുതിര്‍ന്ന":10950,"ആഞ്ഞ":10951,"##വേഗം":10952,"##മുണ്ടായി":10953,"##ിക്കുന്നതെന്ന്":10954,"ക്യാംപ":10955,"സൂക്ഷിച്ചു":10956,"ഗോത":10957,"##േഷ്ഠ":10958,"ഡ്രൈവി":10959,"പട്ടികയിൽ":10960,"##നൽ":10961,"##നേഷ്യ":10962,"##കാഴ്ച":10963,"##ത്തുക":10964,"പ്രഭാഷ":10965,"തീർത്ഥ":10966,"##ഖ്യാത":10967,"സംസാരിക്കുന്ന":10968,"ടൂറിസ":10969,"ഇങ്ങനെയൊരു":10970,"ഐസ":10971,"ഭീതിയ":10972,"##നിയിൽ":10973,"##പട്ട":10974,"##ിന്‌":10975,"അതായിരുന്നു":10976,"ജനകീയ":10977,"##പ്പെടുത്തുകയും":10978,"##ീറ്റര്‍":10979,"വർഷത്തിൽ":10980,"ദിവസങ്ങള്‍":10981,"സംസ്ഥാനത്ത്":10982,"##ിരിക്കെ":10983,"ഏഴാം":10984,"ഫിലിപ്പ":10985,"ഓര":10986,"##പ്പണ":10987,"##പ്പുര":10988,"##പ്രകാര":10989,"പരിമിത":10990,"അനുഭവങ്ങളുടെ":10991,"##മാക്കുന്നത്":10992,"ഭൂമിയില്‍":10993,"കുഞ്ഞുങ്ങളുടെ":10994,"മാര്‍ഗ":10995,"നേരിടേണ്ടി":10996,"വെയില":10997,"നിലകൊള്ള":10998,"എന്തൊക്കെ":10999,"വാക്‌സ":11000,"ലക്ഷ്മ":11001,"പ്രതിപാദ":11002,"പ്രദേശവാസ":11003,"കൂടും":11004,"അനുഭവിച്ച":11005,"ക്ഷേത്രത്തിലെ":11006,"മൃഗങ്ങളെ":11007,"ചെയ്തിരിക്കുന്നത്":11008,"എഡ":11009,"വജ്ര":11010,"##യേയും":11011,"##ിനീ":11012,"പ്രാവശ്യം":11013,"##ടുക്ക്":11014,"പുണ":11015,"ചിലര":11016,"##ഗ്‌":11017,"തനിക്കു":11018,"വെടിവെ":11019,"അടുത്തെ":11020,"##മിനി":11021,"##ക്ഷന്‍":11022,"##രിതം":11023,"##ാന്‍ഡ":11024,"##ിനെക്കുറിച്ച്":11025,"മനേ":11026,"മനഃ":11027,"##േണ്ടതാണ്":11028,"##ട്സ്":11029,"##ാഷി":11030,"അമ്മാവ":11031,"പുനരു":11032,"##ാചാര്യ":11033,"മറികട":11034,"##േലും":11035,"##പ്പിക്കുന്ന":11036,"പ്രോ":11037,"വിഴു":11038,"##മുട്ട":11039,"സംഭവിച്ചത്":11040,"നാട്ടിലേക്ക്":11041,"വിധത്തിൽ":11042,"സങ്കര":11043,"##ുചെയ്യ":11044,"തുരങ്ക":11045,"##തെന്നു":11046,"##വന്ന":11047,"##ലേഖ":11048,"പൂര":11049,"##ുതുട":11050,"പ്രതികൂല":11051,"പതാക":11052,"​​​​":11053,"##ുമൃഗ":11054,"##ില്ലെന്നും":11055,"നടക്കും":11056,"##ദ്യം":11057,"വരുന്നുണ്ട്":11058,"ഇതിനിടെ":11059,"##ുന്നതിനിടെ":11060,"##വാദം":11061,"ഉള്‍പ്പെടെ":11062,"ഗ്രീക്ക്":11063,"##സംഗീത":11064,"ആംഗ്ല":11065,"ഉൽപന്ന":11066,"ചാടി":11067,"താവ":11068,"ബന്ദ":11069,"ഭീതി":11070,"##റിയൻ":11071,"##മേറ്റ":11072,"##ൂരില്‍":11073,"ഒരാളാണ്":11074,"സന്ദേശം":11075,"ഏറ":11076,"സില":11077,"##ിക്കണ്ട":11078,"##റിയില്‍":11079,"പ്രവൃത്ത":11080,"അധ്വാന":11081,"ന്ന":11082,"വിശദമായ":11083,"തകർന്ന":11084,"##ാസ്റ്റ":11085,"##കത്തിന്റെ":11086,"##റ്റീവ്":11087,"കാണുമ്പോൾ":11088,"##പ്രശ":11089,"ജോണ്‍":11090,"##മെത്ത":11091,"##യുള്ളു":11092,"##ുനിൽ":11093,"ആവശ്യപ്പെട്ട":11094,"കുത്തിവയ":11095,"അകലെയാണ്":11096,"ദേശീയോദ്യാന":11097,"അന്റ":11098,"ആല്‍":11099,"സഖ്യ":11100,"##വല്‍":11101,"##ല്യ":11102,"##ചര്യ":11103,"##ിവസ":11104,"കാണാനും":11105,"കണ്ണില്‍":11106,"സ്ത്രീയ":11107,"സിനിമയിലെ":11108,"മേഖലകളിൽ":11109,"##ക്കൊല":11110,"##തോടെയാണ്":11111,"##ഴിഞ്ഞ്":11112,"കെട്ടിടം":11113,"പരസ്പര":11114,"ഓര്‍മ്മകള്‍":11115,"ഏജൻസ":11116,"ഗാര്‍":11117,"ഡല്‍":11118,"##താണെന്ന്":11119,"##സിനു":11120,"##ഗ്ല":11121,"##ിയോട":11122,"##െയൊക്കെ":11123,"വ്യാവസ":11124,"ഇതര":11125,"##ിലൂടെയും":11126,"##ക്കാരാണ്":11127,"അഭാവ":11128,"ഹൈവേ":11129,"പ്രണയത്തിന്റെ":11130,"##ോലിക്ക":11131,"##റ്റ്‌ല":11132,"ആന്റണി":11133,"നൂറുകണക്കിന്":11134,"ഗേ":11135,"##സങ്ക":11136,"##ാംശം":11137,"അവിടെയ":11138,"കേരളീയ":11139,"കാര്യമായി":11140,"ഉൾപ്പെടുത്തിയ":11141,"വാഹനങ്ങൾ":11142,"വിശദമായി":11143,"മുകു":11144,"##റ്റോ":11145,"##റ്റന്‍":11146,"##റിയാൻ":11147,"സമിതി":11148,"വ്യാഴ":11149,"സ്‌പ":11150,"അപ്പൂ":11151,"നൈട്ര":11152,"വാസ്തുവിദ്യ":11153,"എണ":11154,"മരങ്ങളും":11155,"##ത്തിനെതിര":11156,"ഗി":11157,"തോട":11158,"സാൻ":11159,"##ിയെന്ന":11160,"പോൾ":11161,"##ുടേത":11162,"##ുടേത്":11163,"നീയ":11164,"യാത്രകള്‍":11165,"കരഞ്ഞ":11166,"ഉത്തരേന്ത്യ":11167,"##ലിനു":11168,"##ിയാർ":11169,"അതിലൂടെ":11170,"##തുര":11171,"##ത്തിനാണ്":11172,"ഇരുമ്പ":11173,"അതിനിടെ":11174,"2003":11175,"ഓഫീസ്":11176,"##ിക്കിടക്കുന്ന":11177,"ട്രെക്കിങ്":11178,"##തുടങ്ങി":11179,"തീർത്തും":11180,"ധാരാളമായി":11181,"ചുര":11182,"വരി":11183,"##തെങ്കിലും":11184,"##‌ല":11185,"##പ്പന്‍":11186,"സം‌":11187,"##വരായിരുന്നു":11188,"##യിലുണ്ട്":11189,"ഉപയോഗിച്ചാണ്":11190,"അഭയം":11191,"മനസ്സിനെ":11192,"കുറ്റവാള":11193,"പതിനഞ്ച":11194,"മീര":11195,"##ലിന":11196,"##പ്പഴ":11197,"##ാവുക":11198,"നീട്ട":11199,"##ുപ്പ്":11200,"അമ്ല":11201,"##മാണെന്നു":11202,"നെഗ":11203,"ആവശ്യത്തിന്":11204,"പ്രശ്‌നം":11205,"സംരക്ഷണം":11206,"ചേട്ടൻ":11207,"ങ്ങ":11208,"##മയുടെ":11209,"സംസ്‌കാര":11210,"സ്വര്‍":11211,"പെരു":11212,"എന്തിന്":11213,"ജോസ്":11214,"ഓരോന്ന":11215,"രാഷ്ട്രീയം":11216,"നടക്കാൻ":11217,"##ബ്രഹ്മ":11218,"പാരീസ":11219,"പഞ്ചായത്ത":11220,"കശ്മീര":11221,"ചിക്ക":11222,"##യധികം":11223,"പ്രാര്‍ത്ഥ":11224,"പ്രസ്തുത":11225,"##ുവാന്‍":11226,"സംഘടനയുടെ":11227,"##തയുള്ള":11228,"##ഡറ":11229,"##സിച്ച്":11230,"അദ്ദേഹത്തിന്‍റെ":11231,"##ഷ്യസ്":11232,"കഥയെ":11233,"ബഹള":11234,"കോടതിയിൽ":11235,"കാരണമായ":11236,"##ുക്കളുടെ":11237,"##ിപ്പിടിച്ച്":11238,"മെഡിക്കല്‍":11239,"മദ്രാസ്":11240,"എട":11241,"##ുണ്ടാക്കുന്ന":11242,"##ാഹാരം":11243,"കടം":11244,"കടും":11245,"സെമി":11246,"##മെടുത്തു":11247,"ഡിജിറ്റ":11248,"കോളജ്":11249,"##വെച്ച്":11250,"##ിക്കുമായിരുന്നു":11251,"വംശീയ":11252,"പ്രചാരണ":11253,"വസ്ത്രം":11254,"പരിഗണന":11255,"ഭീഷണ":11256,"യഹോവ":11257,"വല്ലാത്തൊരു":11258,"റ്റ":11259,"##വലം":11260,"##പ്പേര":11261,"##ുമാർ":11262,"ജീവിച്ച":11263,"അടയ്ക്ക":11264,"##മാക്കാൻ":11265,"അവതാര":11266,"##രുതെന്ന്":11267,"ചട":11268,"##കിര":11269,"##ൾപ്പെടെ":11270,"##ായനം":11271,"##സ്വര":11272,"ജനാല":11273,"സെൻസ":11274,"ജീവജാല":11275,"##ത്തേത്":11276,"കാഴ്ചപ്പാട":11277,"അവസാനമായി":11278,"മാനദണ്ഡ":11279,"പ്രചരിപ്പ":11280,"##ോഗ്രാമ":11281,"മുൻപിൽ":11282,"അകലെയുള്ള":11283,"##ോളിവുഡ്":11284,"കും":11285,"ടൺ":11286,"##യില്ലാത്ത":11287,"പ്രഫ":11288,"##ദ്ധ്യത":11289,"തുടര്‍ച്ച":11290,"ശ്രീര":11291,"കുടുംബത്തിൽ":11292,"സഞ്ചാരികൾക്ക്":11293,"നീളുന്ന":11294,"കർത്ത":11295,"കാമ്പ":11296,"ട്വ":11297,"നഖ":11298,"രൂപയുടെ":11299,"നശിച്ചു":11300,"പീഠ":11301,"##തകൾ":11302,"മാം":11303,"യാത്രയ്ക്ക്":11304,"##പ്പെടുത്തുന്നത്":11305,"മോശം":11306,"പതിഞ്ഞ":11307,"##ലൈറ്റ്":11308,"പേർക്ക്":11309,"1970":11310,"ഘടകം":11311,"പാക്കേജ":11312,"ഛിന്ന":11313,"##പഴ":11314,"##േയ്ക്ക്":11315,"##ാക്കാനും":11316,"##തിനാലാണ്":11317,"ആശ്രമ":11318,"##ക്കുറിപ്പ":11319,"ജോലിക്ക്":11320,"നഷ്ടം":11321,"സെന്റർ":11322,"യൂണിവേഴ്സിറ്റി":11323,"ഇൻസ്റ്റിറ്റ്യൂട്ട്":11324,"എക്സ്പ്ര":11325,"കാർബൺ":11326,"##ഗൃഹ":11327,"##ന്‍മാര്‍":11328,"കാണിച്ച":11329,"പറയുമ്പോൾ":11330,"കാലത്തു":11331,"മരത്തിന്റെ":11332,"അവിടം":11333,"##ന്തോറും":11334,"മാത്യു":11335,"കക്ക":11336,"ഖല":11337,"##കരം":11338,"##സ്നേഹ":11339,"##മിതി":11340,"##നായും":11341,"മോഷ്ട":11342,"പുസ്തകത്തിൽ":11343,"സംഗതി":11344,"ആണവ":11345,"അന്തരിച്ചു":11346,"പശുക്കളുടെ":11347,"സർവ്വകലാശാല":11348,"##െത്തുടർന്ന്":11349,"ചങ്ങന":11350,"ഭിന്ന":11351,"##ുകഴിഞ്ഞു":11352,"കാണപ്പെടുന്നത്":11353,"ഏറ്റെടുത്തു":11354,"##രുമുണ്ട്":11355,"പാറക്കെട്ട":11356,"##െത്തിയത്":11357,"സൂര്യപ്രകാശം":11358,"ക്രിസ്മസ്":11359,"ജാമ":11360,"ജാഗ്ര":11361,"##യൂ":11362,"##ിയയിലെ":11363,"മാന്ത്രിക":11364,"##ത്ത്‌":11365,"##യിൽനിന്ന്":11366,"മലമ്പ":11367,"പാരമ്പര":11368,"##പടിഞ്ഞാറ":11369,"##ത്തുന്നു":11370,"##ാരോ":11371,"കടൽത്ത":11372,"കഴിഞ്ഞിരുന്നു":11373,"കിട്ടാതെ":11374,"നഷ്ടപ്പെട":11375,"റെസ്റ്റോറ":11376,"##ഴ്‌സ്":11377,"##പോലുള്ള":11378,"ഇനങ്ങൾ":11379,"ഭാവി":11380,"യാ":11381,"##വയും":11382,"##ുന്നിൽ":11383,"##ങ്കില്‍":11384,"അതുവഴി":11385,"ഇതും":11386,"പക്ഷികൾ":11387,"ആവര്‍ത്ത":11388,"കുടിവെള്ള":11389,"##ബിള്‍":11390,"പാക്":11391,"സാധ്യതയുള്ള":11392,"തീർച്ചയായും":11393,"ഇഞ്ച":11394,"ചാക്ക":11395,"ലിയ":11396,"##ർക്കി":11397,"##ട്ടുണ്ട്":11398,"സമഗ്ര":11399,"കഴുകി":11400,"കണ്ടപ്പോള്‍":11401,"തോറ്റ":11402,"##മാണത്":11403,"വൈറല":11404,"നട്ടു":11405,"നാടു":11406,"രജി":11407,"##ോക്ത":11408,"##ണത്തിൽ":11409,"##ക്ഷമ":11410,"##ുടനീളം":11411,"##വരില്‍":11412,"സിപി":11413,"എത്രയും":11414,"ബാധിക്കുന്ന":11415,"നില്‍ക്കുന്നു":11416,"കുറഞ്ഞത്":11417,"പ്ലാന്റ":11418,"മദീന":11419,"ഗൈഡ":11420,"മഠ":11421,"##ങ്ങിൽ":11422,"##പ്പാപ്പ":11423,"##രിങ്ങ":11424,"ലഭ്യമായ":11425,"വേണ്ടിയ":11426,"##ിപ്പിക്കാനും":11427,"നൂറ്റാണ്ടിലെ":11428,"സൃഷ്ടിച്ച":11429,"കമന്റ":11430,"ബൈക്ക്":11431,"ടൈം":11432,"മുത്തച്ഛ":11433,"ബാക്കിയുള്ള":11434,"വാഗ്ദാനം":11435,"ആസ":11436,"ചാമ്പ":11437,"ജാല":11438,"ടാറ്റ":11439,"##ളിത":11440,"##ൻഷൻ":11441,"##യെന്നു":11442,"അയക്കൂ":11443,"പിന്നെയ":11444,"മഹാസ":11445,"ശ്രദ്ധയിൽ":11446,"ഉൾപ്പെട്ട":11447,"തനിക്ക":11448,"##തോറും":11449,"വകുപ്പിന്റെ":11450,"ആംബ":11451,"ചാര്‍":11452,"തെന്ന":11453,"##ുദ്ദ":11454,"##ിലിരുന്ന്":11455,"പ്രിൻ":11456,"ഒന്നാമ":11457,"റോസ്":11458,"തടഞ്ഞു":11459,"മൂന്നാമ":11460,"നിൽക്കുന്നത്":11461,"കവിതകൾ":11462,"##മാകെ":11463,"വൈറസ":11464,"ഡോളർ":11465,"ആൻ":11466,"##വളം":11467,"##ൈത":11468,"##ങ്ങു":11469,"കണ്ടുമുട്ട":11470,"മാത്രവുമല്ല":11471,"തീര്‍ച്ച":11472,"##യിലെയും":11473,"##ലംബ":11474,"ക്ഷീ":11475,"അനുഭവിക്കുന്ന":11476,"ഒറ്റയ":11477,"##ിപ്പിക്കാനുള്ള":11478,"തരത്തിൽ":11479,"വിപരീത":11480,"കുറ്റകൃത്യ":11481,"കണക്കാക്കുന്നത്":11482,"ചെറുകഥ":11483,"ആകാംക്ഷ":11484,"ഗുണ്ട":11485,"##ത്തക്ക":11486,"##ാവുന്നു":11487,"##ക്കുള":11488,"അമേരിക്കയുടെ":11489,"രക്ഷിത":11490,"സമൂഹത്തിൽ":11491,"##ൻസിൽ":11492,"പതിനാല":11493,"നീളവും":11494,"##പിടിച്ചു":11495,"എളുപ്പത്തിൽ":11496,"ആലോചന":11497,"ലക്ഷ്യമാക്കി":11498,"പശ്ചിമഘട്ട":11499,"##ചലച്ചിത്ര":11500,"കാലയളവിൽ":11501,"റഹ്‌മാൻ":11502,"ചവി":11503,"ഭവ":11504,"##രിദ്ര":11505,"നിര്‍ദേശ":11506,"##ാഫിക്":11507,"ഉപേക്ഷിച്ചു":11508,"നുണ":11509,"സ്റ്റേഷനിൽ":11510,"ആൽബ":11511,"ദൗത്യം":11512,"സമുദ്രനിരപ്പിൽ":11513,"ശൃ":11514,"##ളിൽ":11515,"##ിക്കളയ":11516,"ബ്രസീല":11517,"സൈല":11518,"##ിച്ചതിൽ":11519,"എവിടെയോ":11520,"കഴിവുള്ള":11521,"പൂര്‍ണമായും":11522,"ദാസ":11523,"മകള്‍":11524,"വാട്":11525,"##ണേ":11526,"##ചയ":11527,"##എൽ":11528,"തിരക്ക്":11529,"വ്യായ":11530,"ആശ്വാസം":11531,"ലക്ഷണങ്ങൾ":11532,"മഴയുടെ":11533,"ഫ്രീ":11534,"##പുഴ":11535,"ശേഷി":11536,"കീഴിലുള്ള":11537,"റൂം":11538,"ഗാന്ധിജ":11539,"തൃശ്ശൂർ":11540,"അപ്പോ":11541,"അറിഞ്ഞു":11542,"ആസി":11543,"ഷേ":11544,"##ാബ്ദ":11545,"##റിന":11546,"##ഡ്ജ്":11547,"കണ്ടുമു":11548,"##പ്രതിരോധ":11549,"നില്":11550,"##തലമുറ":11551,"##മോചന":11552,"തുണി":11553,"നദീത":11554,"പരിചര":11555,"കയ്യിലെ":11556,"1996":11557,"##ക്കേട":11558,"1950":11559,"ഭീഷണിയ":11560,"ശലഭം":11561,"വാട്ടർ":11562,"മകളെ":11563,"ശാല":11564,"##ുനായ":11565,"##രമായി":11566,"##ത്തെയ":11567,"##ങ്ങാത്ത":11568,"##ുകിയ":11569,"##ത്തിനിട":11570,"##സിങ്":11571,"അറിയപ്പെട്ട":11572,"##ീനത":11573,"184":11574,"ബുദ്ധമത":11575,"മിശ്രിത":11576,"ഏക്കർ":11577,"##പദ്ധ":11578,"##ക്കല്‍":11579,"##ുമണി":11580,"പുരോ":11581,"വെള്ളിയ":11582,"ഗവേഷണം":11583,"കൗണ്ട":11584,"ആദിമ":11585,"കണക്കു":11586,"സൂചിപ്പിക്കുന്നു":11587,"നേതൃത്വത്തിലുള്ള":11588,"പരിഹാരം":11589,"സുരേഷ്":11590,"ഓണ്‍ലൈന്‍":11591,"ഇതിഹാസ":11592,"52":11593,"എക്കാല":11594,"സീരിയ":11595,"##വിവര":11596,"##ുവാണ്":11597,"##ിലേയും":11598,"##ോടെയാണ്":11599,"##കാര്യത":11600,"ആണ്‌":11601,"സ്റ്റാർ":11602,"##ൂറോളം":11603,"സമ്മർദ്ദ":11604,"വര്‍ഷങ്ങള്‍":11605,"##ധികാര":11606,"ദരിദ്ര":11607,"##വിജ":11608,"##ാമുഖ":11609,"##ാജി":11610,"##ുന്നതിലും":11611,"യാത്രയും":11612,"നിലമ്പ":11613,"നിറയ്ക്ക":11614,"പോയാൽ":11615,"തൊണ്ണ":11616,"തൊട്ട്":11617,"അസമ":11618,"പറ്റുന്ന":11619,"എല്ലാവരെയും":11620,"ലഡ":11621,"##ാസമ":11622,"കാണുമ്പോള്‍":11623,"ദ്രുത":11624,"##വൈവിധ":11625,"ഭൂമിശാസ്ത്രവുമായി":11626,"ഡാറ്റ":11627,"രാഗ":11628,"##വണ്ണം":11629,"##കണ്ഠ":11630,"##ന്താ":11631,"പുതുവ":11632,"ഗ്രേറ്റ്":11633,"ക്രൂ":11634,"നാടിന്റെ":11635,"##ത്വത്തിന്റെ":11636,"ഇഷ്ടമാണ്":11637,"സൗകര്യങ്ങൾ":11638,"അക്കാദമ":11639,"##സാധ്യത":11640,"ശമ്പളം":11641,"##ശാഖ":11642,"##വർഷ":11643,"##ളിച്ച":11644,"##െയിലെ":11645,"നൽകുകയും":11646,"നടത്തിയിരുന്നു":11647,"അനുവാദ":11648,"##െന്താ":11649,"കഞ്ഞ":11650,"പ്പ":11651,"റാം":11652,"ഷോപ്പ":11653,"##‌ള":11654,"##ച്ചർ":11655,"##ന്റീന":11656,"വിളിപ്പ":11657,"സഹായിക്കുന്ന":11658,"##പ്പിങ്":11659,"ഹൈന്ദ":11660,"റിസോര്‍":11661,"നരേന്ദ്ര":11662,"വിൽപന":11663,"##ലോകം":11664,"സജീവമായി":11665,"അച്ഛനമ്മ":11666,"മുദ്രാവ":11667,"65":11668,"##ക്കാതെ":11669,"പക്ഷികളുടെ":11670,"പ്രകൃതിദ":11671,"ഉദ്യോഗസ്ഥർ":11672,"മരണമട":11673,"ഉറ്റ":11674,"എന്റ":11675,"##ഹാൻ":11676,"##ങ്ങളിലേക്കു":11677,"സ്ക്ര":11678,"അവനു":11679,"##േഷന്റെ":11680,"മനസ":11681,"കളിക്കാര":11682,"പേർഷ്യൻ":11683,"നവോ":11684,"സുപ്രധാന":11685,"പിടികൂട":11686,"സ്റ്റുഡിയോ":11687,"ഗേറ്റ":11688,"ബജ":11689,"ഹം":11690,"##ദാർ":11691,"##ചെയ്ത":11692,"##ായകൻ":11693,"##ച്ചൻ":11694,"##ാവലി":11695,"നിധ":11696,"കൊത":11697,"ചെയ്യപ്പെട്ടു":11698,"##സ്തീന":11699,"കാഴ്ച്ച":11700,"കൃതികൾ":11701,"കൈല":11702,"##ത്സര":11703,"ട്രേ":11704,"നനഞ്ഞ":11705,"##ാഘോഷ":11706,"##വരുണ്ട്":11707,"അറേബ്യ":11708,"ഓം":11709,"ഗാ":11710,"സിൽ":11711,"##േൺ":11712,"മുന":11713,"മുല്ല":11714,"##ത്തിനുവേണ്ടി":11715,"##ുന്നതുമായ":11716,"പുറന്ത":11717,"നിർണായക":11718,"ജീവിച്ചു":11719,"##മെടുത്ത":11720,"സ്പർശ":11721,"വരികയും":11722,"ബെംഗളൂ":11723,"എമ്മ":11724,"ലാഹ":11725,"##യാണെന്ന്":11726,"##മൺ":11727,"##റിനു":11728,"##ിവേ":11729,"വീഴുന്ന":11730,"ബിൻ":11731,"കൊടുക്കുന്ന":11732,"വനമേഖല":11733,"ഉണങ്ങിയ":11734,"1960":11735,"വഴിയിലൂടെ":11736,"അർത്ഥം":11737,"മറികടക്ക":11738,"##ക്കാനും":11739,"##െയിമ":11740,"##ിപ്പിച്ചിരുന്നു":11741,"സ്വാഗതം":11742,"##ോടുകൂടി":11743,"##വിടം":11744,"പകർന്നു":11745,"കുടുംബവും":11746,"കുടുംബാംഗ":11747,"തുരു":11748,"തെരഞ്ഞെടുപ്പ്":11749,"ഊര":11750,"പൃ":11751,"##വില്‍":11752,"##ീഴ":11753,"##ുകൊടുത്ത":11754,"പറഞ്ഞപ്പോൾ":11755,"##ർമാര":11756,"കൂടിയായ":11757,"##ജീവന":11758,"##ാതിരിക്കാന്‍":11759,"കോട്ടയ":11760,"പുറത്തിറക്കിയ":11761,"ലീഗ":11762,"##ിലാക്കി":11763,"സഹിതം":11764,"##ക്കാരന":11765,"##മെല്ലാം":11766,"ഇരുന്ന്":11767,"പ്ലേ":11768,"##സ്മരണ":11769,"നിസ്സാര":11770,"ഞെട്ടി":11771,"##രുടേയും":11772,"അപൂര്‍വ":11773,"സ്മരണ":11774,"##സ്‌ട്രേലിയ":11775,"76":11776,"##ട്ടർ":11777,"##ങ്ങാൻ":11778,"##ിപ്പൊ":11779,"##ുപി":11780,"##സിൻ":11781,"##ണമെന്നാണ്":11782,"സാധിക്കില്ല":11783,"അമ്മയ്ക്ക്":11784,"മൃഗങ്ങളുടെ":11785,"രേഖകൾ":11786,"കാമറ":11787,"ഇയാള":11788,"എസ്‌":11789,"രഘ":11790,"കൊന്നു":11791,"ഇതിലൂടെ":11792,"തോറും":11793,"പങ്കുവെ":11794,"##ുവരിയിൽ":11795,"##പെട്ടു":11796,"യുഗ":11797,"ശരീരത്തിന്റെ":11798,"ഡോക്ടറ":11799,"##ന്മാർക്ക്":11800,"ആവാസവ്യവസ്ഥ":11801,"കലി":11802,"ടൂർ":11803,"മണ്‍":11804,"ഹ്ര":11805,"##ുഴ":11806,"##പ്പാല":11807,"##പ്പെടുക":11808,"കാലാവ":11809,"എന്തുകൊണ്ട്":11810,"കൂട്ടത്തോടെ":11811,"അടച്ചു":11812,"##വുമൊക്കെ":11813,"##തോതിൽ":11814,"##മാക്കിയത്":11815,"സൂചിപ്പിക്കുന്നത്":11816,"ഗുരുതരമായ":11817,"ഗാല":11818,"ഫോര്‍":11819,"റഹ്മ":11820,"##തയാണ്":11821,"##ഷ്‍":11822,"##ത്താല്‍":11823,"ചിത്രമാണ്":11824,"കിടന്ന്":11825,"താഴ്വര":11826,"##ൊരിക്കൽ":11827,"കാത്തിരിക്കുന്നു":11828,"കടലാസ":11829,"ഒരുക്കിയിട്ടുണ്ട്":11830,"സെക്രട്ടറിയ":11831,"ചെയ്‍ത":11832,"മോദി":11833,"ഉപയോക്താവ്":11834,"ആന്തര":11835,"തൽ":11836,"സിമ":11837,"##മറ്റ":11838,"##പയോഗ":11839,"##ചിതമായ":11840,"നിലയ":11841,"മൊത്ത":11842,"ശേഷമുള്ള":11843,"നിലവില്‍":11844,"##കേന്ദ്രം":11845,"അളവില്‍":11846,"##ിപ്പിടിച്ചു":11847,"##ുമുതൽ":11848,"ഇട്ടു":11849,"രവീ":11850,"രത്ന":11851,"##ക്കിലെ":11852,"##ക്കാനുള്ള":11853,"##്യാദ":11854,"##ാരിയ":11855,"##ാതായി":11856,"##ിയെടുത്തു":11857,"ജീവിക്കാൻ":11858,"ട്രംപ്":11859,"കണ്ണാട":11860,"സ്പാനിഷ്":11861,"പതിനായിര":11862,"കല്ലറ":11863,"1971":11864,"ദൈവത്തിന്റെ":11865,"എട്ടാം":11866,"സീസണ":11867,"ഛായ":11868,"##ോഫ":11869,"##ടങ്ങുന്ന":11870,"##ുകൊടുത്തു":11871,"1992":11872,"ബാല്യ":11873,"അധ്യാപിക":11874,"44":11875,"കവർ":11876,"ബാക്ക":11877,"##തയില്‍":11878,"##ഹൗ":11879,"##ജന്‍":11880,"##ിക്കെട്ട":11881,"##ുകളോളം":11882,"രാജേഷ്":11883,"തെലു":11884,"ഗ്രി":11885,"##ാണു്":11886,"കാഴ്ചകള":11887,"##വര്‍ഗ":11888,"##െയ്സ്":11889,"##പെടുത്ത":11890,"ഇലകള്‍":11891,"മാസത്തിൽ":11892,"സർവേ":11893,"വാതക":11894,"ലീഗ്":11895,"റെക്കോർഡ്":11896,"ന്യൂനപക്ഷ":11897,"തിത്ത":11898,"##തൊ":11899,"##ിനില്‍":11900,"##റിയുന്ന":11901,"##ക്കുറെ":11902,"ക്രിയ":11903,"ഉറച്ച":11904,"പ്രതിപക്ഷ":11905,"##വര്‍ക്കും":11906,"പച്ചപ്പ":11907,"ലേഖനത്തിന്റെ":11908,"അനുവാദം":11909,"മാതൃഭൂമി":11910,"##ിക്കപ്പെടുകയും":11911,"ഡേവിഡ്":11912,"രണ്ടുപേരും":11913,"എങ്ങോട്ട":11914,"##മാന്‍":11915,"കൊടിയ":11916,"##പ്പെട്ടിരിക്കുന്നു":11917,"ചെടിയ":11918,"##ിമാര":11919,"രാജ്ഞ":11920,"അനായ":11921,"അറിയാൻ":11922,"ചുട്ട":11923,"എഴുതുന്ന":11924,"സ്വപ്‌ന":11925,"##ിക്കൊടുക്ക":11926,"ഒഴിവാക്കി":11927,"ദക്ഷിണാഫ്ര":11928,"സ്വദേശിയായ":11929,"തമ്പുര":11930,"കട്ടിയ":11931,"പയ":11932,"##ലുകളുടെ":11933,"##ൂബ":11934,"##ജലം":11935,"##ിനിയുടെ":11936,"##ക്കിഴ":11937,"ജനവാസ":11938,"മെത്ര":11939,"നെറ്റ":11940,"##ുമായാണ്":11941,"രീതിയാണ്":11942,"സമ്പാദ":11943,"നിലവാര":11944,"എവിടെയും":11945,"മക്കളുടെ":11946,"ഗുജറാ":11947,"പഞ്ഞ":11948,"ബാഗ്":11949,"മിയ":11950,"##ശക്തിയ":11951,"##ഹാസ":11952,"നിധി":11953,"തിരുന":11954,"സുഭ":11955,"രോഗാണു":11956,"പഞ്ചസാര":11957,"ചൈനയിൽ":11958,"പ്രസിദ്ധീകരിച്ചു":11959,"##ശലഭ":11960,"സ്വാഭാവികമായും":11961,"മുന്നറിയിപ്പ":11962,"വൈദിക":11963,"കർശ":11964,"##രാഗ":11965,"##ൂം":11966,"##ടുങ്ങിയ":11967,"##മായൊരു":11968,"##ണമേ":11969,"പേരുകേട്ട":11970,"മുന്നിലെ":11971,"മഴക്കാലത്ത്":11972,"##ൊക്കെയുള്ള":11973,"മരണശേഷം":11974,"##സമയം":11975,"മാലിന്യം":11976,"സർട്ടിഫ":11977,"ഉത്പന്ന":11978,"യോഗ്യത":11979,"പ്രമേയ":11980,"തത്വ":11981,"##നവ":11982,"##ഡന്‍":11983,"##ുള്ളു":11984,"##ുകളെല്ലാം":11985,"കിം":11986,"##േതര":11987,"രീതിയിലാണ്":11988,"എന്നതിന്റെ":11989,"600":11990,"കഫ":11991,"നഗ്ന":11992,"##വില്ല":11993,"##ുവരും":11994,"വലതു":11995,"കൊ":11996,"##കുട്ടിയ":11997,"സഹായിച്ചു":11998,"ദേശാടന":11999,"186":12000,"മണ്ണും":12001,"##ങ്ങളിലെല്ലാം":12002,"ദ്വീപിൽ":12003,"മുതലാള":12004,"##നാടിന്റെ":12005,"വേണമെങ്കിലും":12006,"ഉറപ്പുവരുത്ത":12007,"ഫൗണ്ട":12008,"മോഷ":12009,"##ാർന്ന":12010,"ചിലയിട":12011,"തലയിൽ":12012,"സ്റ്റെ":12013,"ഒഴിഞ്ഞ":12014,"വലുപ്പമുള്ള":12015,"ഭര്‍ത്താവ്":12016,"ടെലിവിഷൻ":12017,"ഉരുക":12018,"കർമ്മ":12019,"ബുള്ള":12020,"ശ്ല":12021,"##േരു":12022,"##റ്റില":12023,"##ുപിന്ന":12024,"വ്യാസ":12025,"കാലത്തിന്റെ":12026,"##ുകാരന്‍":12027,"സമയത്തു":12028,"മനസ്സിലാക്കാൻ":12029,"എഴുതാൻ":12030,"സൂര്യൻ":12031,"കഥാപാത്രം":12032,"അവകാശം":12033,"കൗതുകം":12034,"ഗോവിന്ദ":12035,"പെയ്ത":12036,"##തൻ":12037,"##തായും":12038,"##ികഴ":12039,"##ത്തിനിടയിൽ":12040,"മലേഷ്യ":12041,"##വേറ്റ":12042,"സഹായത്തിനു":12043,"സിനിമയിൽ":12044,"ന്യൂയോ":12045,"##ുമൊക്കെ":12046,"മറക്കാനാവാത്ത":12047,"പൂർത്തിയാക്കി":12048,"ഭഗത്":12049,"ദൈർഘ":12050,"സെപ്റ്റംബ":12051,"അക്കാലത്തെ":12052,"##നഗ":12053,"##നങ്ങളിൽ":12054,"##കവ":12055,"##പ്പതി":12056,"പ്രമാണ":12057,"ഏറ്റുവാ":12058,"ഇവയെല്ലാം":12059,"രാത്രിയില്‍":12060,"തോന്നിയില്ല":12061,"പുരോഹിത":12062,"ജാപ്പ":12063,"##യുമൊക്കെ":12064,"##ിൽനിന്നു":12065,"##ജ്ജ്":12066,"പ്രധാനമാണ്":12067,"കല്പ":12068,"##യോടു":12069,"ഇവർക്ക്":12070,"കാര്‍ബ":12071,"##ുവീഴ്ച":12072,"വ്യക്തമാക്കുന്നു":12073,"സായാഹ":12074,"വാക്സിന":12075,"ഫുട്ബോൾ":12076,"##തൊക്കെ":12077,"##രാമ":12078,"##ബുദ്ധ":12079,"##ക്കണ":12080,"വിജ്ഞാന":12081,"അതല്ല":12082,"പറയുന്നത":12083,"മരങ്ങള്‍":12084,"പ്രവാസി":12085,"സാധനങ്ങൾ":12086,"ട്രംപ":12087,"സഞ്ചാരം":12088,"സംഭവിച്ചു":12089,"പാഞ്ഞു":12090,"ബെഞ്ച":12091,"സത്യത്തിൽ":12092,"ഡോക്ടറെ":12093,"തിരഞ്ഞെടുത്ത":12094,"ചായക്കട":12095,"മുത്തശ്ശി":12096,"പാരിസ്ഥിതിക":12097,"കൊടുമുട":12098,"ലു":12099,"##വാരി":12100,"##ലറ്റ്":12101,"##ലുകളെ":12102,"##മെന്നും":12103,"##പടി":12104,"പെർ":12105,"പേരുടെ":12106,"ഗ്രാമവാസ":12107,"നല്‍കാന്‍":12108,"വര്‍ഷങ്ങള്‍ക്ക്":12109,"##ിയ്ക്കുന്ന":12110,"ആഴം":12111,"വേറൊരു":12112,"പ്രതിസന്ധി":12113,"04":12114,"##ുവന്ന്":12115,"##വേട്ട":12116,"പറഞ്ഞിട്ടുണ്ട്":12117,"പ്രദേശങ്ങൾ":12118,"സ്ത്രീയെ":12119,"രോഗങ്ങൾ":12120,"ചരിത്രവും":12121,"ശരീരത്തില്‍":12122,"##ബ്രഹ":12123,"എല്ലാവര":12124,"അക്കൗണ്ട":12125,"ദിനോസ":12126,"കരിമ":12127,"##പരിശ":12128,"നിശ്ചല":12129,"##മായിട്ടാണ്":12130,"ഇറ്റാല":12131,"51":12132,"ആക്ഷേപ":12133,"ഇക്കാലത്ത്":12134,"കൽ":12135,"സാഗ":12136,"##ുള":12137,"##ചിക":12138,"##പ്പുകൾ":12139,"##്യങ്ങള്‍":12140,"##ക്ഷമത":12141,"വരാന്‍":12142,"മൂർ":12143,"ക്ക":12144,"കഴിയുന്നു":12145,"സിനിമയില്‍":12146,"##ട്രി":12147,"യുവാവ്":12148,"ദക്ഷിണേന്ത്യ":12149,"അവശിഷ്ടങ്ങൾ":12150,"ഗെ":12151,"ഗിര":12152,"##ക്കാം":12153,"##ച്ചയ":12154,"മെഷ":12155,"കരുതല":12156,"1991":12157,"പുലർച്ച":12158,"ഇത്തരത്തില്‍":12159,"താത്പര":12160,"റെയില്‍വേ":12161,"ഈഴ":12162,"ഡിപ്പ":12163,"മൽ":12164,"##ചക്ര":12165,"ഒരുതരം":12166,"തലയു":12167,"##ത്ഥാന":12168,"ഉറപ്പു":12169,"അയാള്‍ക്ക്":12170,"##ൊക്കെയായി":12171,"ഉടന":12172,"പാത്രം":12173,"ലധികം":12174,"##കത്തിൽ":12175,"##ൂലം":12176,"##ഡേ":12177,"##ാതുര":12178,"കൂന":12179,"ഇല്ലായിരുന്നു":12180,"നെഹ":12181,"സാഹചര്യത്തില്‍":12182,"വിദഗ്ദ്ധ":12183,"ആസ്പ":12184,"സായി":12185,"##ൂഷ":12186,"##ുവാനുള്ള":12187,"ഇരുള":12188,"പാടിയ":12189,"കടന്നുപോയ":12190,"വിശേഷിപ്പിക്ക":12191,"ഡ്രൈവർ":12192,"വെള്ളപ്പൊക്ക":12193,"##ാഠ":12194,"##വാൻ":12195,"##ിയമ്മ":12196,"##്യൺ":12197,"എല്ലാവര്‍ക്കും":12198,"പ്രതികരണം":12199,"ബിരിയ":12200,"ഡയറക്ടർ":12201,"അറബിക്കട":12202,"പൊരുത്ത":12203,"ഗുജറാത്ത":12204,"യി":12205,"##വാന":12206,"##ിച്ചിട്ട്":12207,"##ഞ്ചെ":12208,"##ഴ്ത്തി":12209,"കഥയും":12210,"സാധിച്ചില്ല":12211,"വാചക":12212,"##യാളാണ്":12213,"രോഗലക്ഷ":12214,"##ിയിലെത്ത":12215,"ഇംഗ്ലിഷ്":12216,"##ാടിസ്ഥാന":12217,"മുകളിലെ":12218,"നാമം":12219,"ചക്രവർത്ത":12220,"ഇന്റർനാഷ":12221,"പശുക്കൾ":12222,"ഛിന്നഗ്രഹ":12223,"തങ്ങളെ":12224,"ബാന":12225,"##ശക്തി":12226,"##മഴ":12227,"##റപ്പ":12228,"നോക്കുന്ന":12229,"ലഭിച്ചിട്ടുണ്ട്":12230,"കഴിഞ്ഞപ്പോള്‍":12231,"ഭൂട്ട":12232,"പാര്‍ട്ടി":12233,"##ഹാരം":12234,"##ായതിനാൽ":12235,"പരന്നു":12236,"ആളാണ്":12237,"എത്രമാത്രം":12238,"സഭയുടെ":12239,"പിന്തുണയ":12240,"വാസു":12241,"ഓറഞ്ച്":12242,"72":12243,"ഐല":12244,"##ക്കമ്പ":12245,"പക്ഷികളെ":12246,"##വേറിയ":12247,"##ീസിന്റെ":12248,"ട്രിപ്പ":12249,"സാമാന്യ":12250,"##യിടെ":12251,"##ത്തിലേയ്ക്ക്":12252,"##ത്തിലൂടെയാണ്":12253,"ശിഖ":12254,"##ുമെന്റ":12255,"പുരോഗമ":12256,"എയ്":12257,"ഹീ":12258,"##ബിയ":12259,"##്യമായിരുന്നു":12260,"##്യൂഹ":12261,"നിര്‍മാണ":12262,"ടെസ്റ്റ":12263,"ആമസ":12264,"പൊതിഞ്ഞ":12265,"ഹ്രസ്വ":12266,"ഖു":12267,"ജഗ":12268,"ബാൽ":12269,"നിഷ":12270,"##ാകുകയും":12271,"കടത്തി":12272,"ജീവിച്ചിര":12273,"##ത്തേയ്ക്ക്":12274,"ഉറപ്പ്":12275,"##ക്കുള്ളില്‍":12276,"പോരാട":12277,"കാറ്റും":12278,"##പ്പോൾ":12279,"അഫ്ഗാനിസ്ത":12280,"മകള":12281,"യക്ഷ":12282,"##തുമാണ്":12283,"##ിലോമ":12284,"##ിവച്ചു":12285,"കാലിഫ":12286,"ശ്രമങ്ങൾ":12287,"ഹെലിക":12288,"കുളിര":12289,"റോഡിലൂടെ":12290,"##സാദ്":12291,"പലതവണ":12292,"മൈതാന":12293,"47":12294,"തീർന്ന":12295,"##ാദർ":12296,"ജീവികളുടെ":12297,"കരക":12298,"##നാടൻ":12299,"വിപണിയിൽ":12300,"വര്‍ത്ത":12301,"കടത്ത":12302,"ചേര്‍ക്ക":12303,"നിർണയ":12304,"മാറ്റങ്ങള്‍":12305,"ക്ലബ്ബ":12306,"മണ്ണിന്റെ":12307,"ഒരിക്കല":12308,"1998":12309,"എടുക്കാൻ":12310,"##നാട്ടിൽ":12311,"നടുവിൽ":12312,"പ്രദര്‍ശ":12313,"##െയിംസ്":12314,"##നങ്ങള":12315,"##തൂ":12316,"##യാക്കി":12317,"##റ്റുകള്‍":12318,"മുഷ":12319,"##ാക്കാനുള്ള":12320,"പറന്ന":12321,"സമാന്തര":12322,"കഴിക്കുന്ന":12323,"പൂവ":12324,"##ുതന്നെയാണ്":12325,"പേരിലുള്ള":12326,"സെല്ല":12327,"ദിവസമാണ്":12328,"മലയാളചലച്ചിത്ര":12329,"##െയ്ൻ":12330,"നിര്‍ദ്ദേശ":12331,"##ന്മാരായ":12332,"കിട്ടിയില്ല":12333,"ദ്വീപിലെ":12334,"##ാനാവാതെ":12335,"##ുണ്ടായില്ല":12336,"ഉൽപാദന":12337,"പശ്ചാത്തലത്തിൽ":12338,"ഉദ്ഘാടനം":12339,"പ്രായോഗിക":12340,"ഏട്ട":12341,"കര്‍ണ":12342,"##ഭയ":12343,"സംസാരം":12344,"പൊടുന്ന":12345,"കൊണ്ടുപോയ":12346,"ഏറെക്കുറെ":12347,"പട്ടണം":12348,"കാട്ടിൽ":12349,"ശരീരത്തിലെ":12350,"തരുന്ന":12351,"ജീവനോടെ":12352,"ശവകുട":12353,"ഗുരുവായ":12354,"ബാഹ്യ":12355,"അഗ്നിപർവത":12356,"അലക്സാണ്ട":12357,"ഗൂഢാലോചന":12358,"##വിയുടെ":12359,"##ാതെയാണ്":12360,"പൊന്ത":12361,"എന്തുകൊണ്ടാണ്":12362,"വന്നിട്ടുണ്ട്":12363,"തോന്നുന്നത്":12364,"അവളോട്":12365,"അനുഭവമാണ്":12366,"നാലോ":12367,"ചുറ്റുപാട":12368,"അങ്ങേയ":12369,"##സൂക്ഷ":12370,"ഓർത്തു":12371,"ഓസ്‌ട്രേലിയ":12372,"ഫ്ള":12373,"വിരുന്ന":12374,"##ത്തോള":12375,"##ിയിലേക്കു":12376,"വേൾഡ്":12377,"##ിമാറ്റ":12378,"##പ്പെടാം":12379,"##ത്തില്‍പ്പെട്ട":12380,"വർഷങ്ങൾക്ക്":12381,"പ്രദേശമാണ്":12382,"##ിയായും":12383,"##ക്യൂരി":12384,"##ാരുമായി":12385,"##ാക്കളെ":12386,"ടൂറിസ്റ്റ":12387,"അങ്ങോട്ട്":12388,"ചെറുതായി":12389,"ആലോചിച്ചു":12390,"കഠിനമായ":12391,"സംഭാഷണ":12392,"തറവാട്ട":12393,"അണിയ":12394,"ഗേറ്റ്":12395,"ജന്തു":12396,"##ന്നൂർ":12397,"##ാരൂപ":12398,"എന്നാ":12399,"വെടി":12400,"കാണാനുള്ള":12401,"##സ്റ്റിന":12402,"സിറ്റ":12403,"ചിലവഴ":12404,"പോകണം":12405,"##ക്കളി":12406,"നെട":12407,"അലഞ്ഞു":12408,"ഉൾക്കട":12409,"വാതില്‍":12410,"##ിച്ചെടുത്തു":12411,"##ാലോച":12412,"കുന്നിൻ":12413,"പ്രൊഫ":12414,"ഇപ്പൊ":12415,"മടി":12416,"മോണ":12417,"##ധാരണ":12418,"##ച്ചിറ":12419,"അവരും":12420,"##ത്തിൽനിന്ന്":12421,"##ക്കിള":12422,"##ഡിറ്റ്":12423,"അനുഭവങ്ങൾ":12424,"ആനകൾ":12425,"കൊല്ലപ്പെട്ടു":12426,"##വളെ":12427,"ഉച്ചയ്ക്ക്":12428,"##പിടിച്ച്":12429,"ആഭരണ":12430,"##േഴ്‌സ്":12431,"രവീന്ദ്ര":12432,"ഗംഭ":12433,"ലാൽ":12434,"സുന്ന":12435,"##രീ":12436,"##ഡിനെ":12437,"മാർച്ച":12438,"പുലി":12439,"##ിപ്പിക്കുന്നത":12440,"നടി":12441,"വെസ്റ്റ്":12442,"തുടർ":12443,"മൂക്ക":12444,"##മുട്ടി":12445,"വഴിയില്‍":12446,"കിട്ടാത്ത":12447,"ഉള്ളിലെ":12448,"##ുനട":12449,"കാട്ടി":12450,"മൊട്ട":12451,"അന്വേഷിച്ചു":12452,"ഇരുപത്ത":12453,"ഗാനങ്ങൾ":12454,"ട്രെയിന്‍":12455,"ഭര്‍ത്താവ":12456,"പിണറായി":12457,"മുസ്ലീം":12458,"ക്യാപ്റ്റൻ":12459,"കർണ്ണ":12460,"താട":12461,"താളം":12462,"ഫ്യൂ":12463,"##ക്യം":12464,"##ക്കാളും":12465,"പോസിറ്റ":12466,"##ിതെ":12467,"മറ്റേത":12468,"പോയാല്‍":12469,"ഭൂഗ":12470,"##ിക്കാനാവില്ല":12471,"വില്യം":12472,"അല്ലെങ്കിലും":12473,"കുമ്മ":12474,"മധ്യപ്രദേശ":12475,"സാക്ഷ്യ":12476,"അപ്രതീക്ഷിതമായി":12477,"വ്യാവസായിക":12478,"സൌ":12479,"##യച്ച":12480,"##ഫ്ല":12481,"##ദോ":12482,"##ാമല്ലോ":12483,"##ക്കുറി":12484,"വരികൾ":12485,"##ത്തിയുടെ":12486,"വ്യൂ":12487,"##ട്ടിക്":12488,"സംഘവും":12489,"ഡോക്യ":12490,"##ിയ്ക്കുന്നു":12491,"ചേർന്നാണ്":12492,"ഡ്രൈവ്":12493,"എൻജിനീയ":12494,"ത്യാഗ":12495,"ശീമ":12496,"എന്നാണ":12497,"##ക്കെത്ത":12498,"പരിഷ്":12499,"പലവിധ":12500,"വിളവ്":12501,"നിന്നുമാണ്":12502,"##ബർട്ട്":12503,"ഒട്ടുമ":12504,"##നോക്കി":12505,"കമ്യൂണി":12506,"##ക്കൂട":12507,"താങ്കള":12508,"നോട്ട്":12509,"ഫുഡ്":12510,"##യിലേക്കും":12511,"##റിറ്റ":12512,"കരുണ":12513,"മഹാത്മ":12514,"##ക്കുറവ്":12515,"കവിതയുടെ":12516,"180":12517,"ഇരുപത്തിയ":12518,"അന്തരീക്ഷം":12519,"നായ്ക്കൾ":12520,"##ുകുട്ട":12521,"സാക്ഷ്യം":12522,"ജന്മം":12523,"അസാധാരണമായ":12524,"ആന്റ്":12525,"ഊഹ":12526,"ബിൽ":12527,"മാണ":12528,"##ിയിരുന്നു":12529,"##ിയിലുള്ള":12530,"##െന്നതാണ്":12531,"മറ്റോ":12532,"മറ്റെന്ത":12533,"കുടിച്ചു":12534,"മനസ്സു":12535,"എത്തും":12536,"തിരിച്ചെത്തിയ":12537,"ചുവപ്പ്":12538,"കത്തോലിക്ക":12539,"ചങ്ങല":12540,"വ്യതിയാനം":12541,"വയ്ക്കുന്ന":12542,"##ിലം":12543,"##ത്തെടുക്ക":12544,"വളം":12545,"##ുകയാണ":12546,"വിഷമം":12547,"നടക്കുമ്പോൾ":12548,"വച്ചാണ്":12549,"കിലോമീറ്ററ":12550,"കാറിൽ":12551,"ഏഷ്യൻ":12552,"##ർത്ഥം":12553,"അബ്ദുൽ":12554,"ഉപകരണങ്ങൾ":12555,"വൈകാരിക":12556,"ബൂ":12557,"##കിൽ":12558,"##ൂർത്ത":12559,"കുങ്ക":12560,"തിരിയ":12561,"ഗ്രേ":12562,"ആരോടും":12563,"വന്നതോടെ":12564,"##വർമ്മ":12565,"അമ്മൂ":12566,"നടത്തം":12567,"##ിക്കുട്ടി":12568,"പഞ്ചാബി":12569,"##ക്കാര്‍ക്ക്":12570,"വിഭവങ്ങൾ":12571,"നിഗമനം":12572,"ചങ്ങനാശ്ശ":12573,"ജാപ്പനീസ്":12574,"റൈ":12575,"ശോഭ":12576,"##സസ്യ":12577,"##ിനെയാണ്":12578,"##െയെ":12579,"എന്നതിന":12580,"അവലംബ":12581,"##ള്‍ച്ച":12582,"അധി":12583,"അവിടെയെ":12584,"കഴിയൂ":12585,"ഇറക്കുമ":12586,"അംഗങ്ങൾ":12587,"നിർമ്മാണം":12588,"തുടങ്ങുന്നു":12589,"ഗണപതി":12590,"പരിഹാസ":12591,"സംസ്കാരം":12592,"ഘട്ടത്തിൽ":12593,"മെച്ചപ്പെട്ട":12594,"ഗലീല":12595,"ആക്":12596,"രഞ്":12597,"##്പ്":12598,"സ്ഥലത്തു":12599,"##േക്കാളും":12600,"ശ്രമിക്കുന്ന":12601,"അർജ":12602,"അങ്ങോട്ട":12603,"അങ്ങിനെ":12604,"പാവപ്പെട്ട":12605,"പരാമര്‍ശ":12606,"മാതാപിതാക്കളുടെ":12607,"ബിജെപ":12608,"##ിക്കാനാവാത്ത":12609,"കുതിച്ചു":12610,"പേരിട്ട":12611,"ഫൊട്ട":12612,"സ്യൂ":12613,"##ീത്":12614,"##ൻമ":12615,"##ക്കുകയാണ്":12616,"##ത്തറ":12617,"##ത്തോടുള്ള":12618,"##ങ്ങല":12619,"##ങ്ങുന്നത്":12620,"##ാൻസ":12621,"കൊതി":12622,"##ോടുകൂടിയ":12623,"##പ്രധാന":12624,"##ുന്നതെന്നും":12625,"വന്നാല്‍":12626,"നെല്ല്":12627,"മരണത്തെ":12628,"1997":12629,"##മാറിയ":12630,"ശ്രദ്ധേയമായ":12631,"ഭൗമ":12632,"സംഭര":12633,"ആപ":12634,"ഈശ്വര":12635,"ചോള":12636,"ഷമ്മ":12637,"ഹ്യൂ":12638,"##നിയിലെ":12639,"##ുള്‍":12640,"##ദന":12641,"കൊറോ":12642,"##ോഗം":12643,"##കരാണ്":12644,"വിശപ്പ":12645,"##റ്റിംഗ്":12646,"ചിത്രത്തിലെ":12647,"കാര്യങ്ങളും":12648,"##ോയെന്ന്":12649,"മണൽ":12650,"എന്നെഴുത":12651,"##ിത്തീറ്റ":12652,"എഴുതാന്‍":12653,"പതിനൊന്ന":12654,"സാഹിത്യകാര":12655,"ചുമര":12656,"നികുതി":12657,"##ംഖല":12658,"56":12659,"ബേക്ക":12660,"##മായതിനാൽ":12661,"കാപ്പി":12662,"പേരുകൾ":12663,"##വർഗ്ഗ":12664,"മലിനീകരണ":12665,"ക്രിസ്ത്യാന":12666,"അതിമനോഹരമായ":12667,"മേൽക്കൂര":12668,"##ിത്വ":12669,"##ഫലം":12670,"##ായിരിക്കുന്നു":12671,"കേടു":12672,"കേസിൽ":12673,"##വരയൻ":12674,"അനുയായ":12675,"##ഭാഗ്യ":12676,"കണ്ണുന":12677,"വര്‍ഷത്തെ":12678,"സൂര്യന്‍":12679,"എളുപ്പം":12680,"തിളങ്ങുന്ന":12681,"മിണ്ടാതെ":12682,"39":12683,"ഏൽപ്പ":12684,"ഘട്ടം":12685,"##ഗീത":12686,"##ികം":12687,"##പ്രായ":12688,"ജീവിതത്തിലേക്ക്":12689,"വഴിയോ":12690,"ലോകത്തിൽ":12691,"മെന":12692,"##ക്കുറിച്ചാണ്":12693,"ടിവി":12694,"1995":12695,"ആവശ്യമില്ല":12696,"ആഹ്ല":12697,"ആരു":12698,"ഓപ്പ":12699,"##ോഴും":12700,"##ബൽ":12701,"##ല്ലം":12702,"അവന്‍റെ":12703,"##ാവശിഷ്ട":12704,"##ില്ലായ്മ":12705,"##ാമെങ്കിലും":12706,"കൊണ്ട":12707,"##ന്റിൽ":12708,"ലഭ്യത":12709,"##റുക്കി":12710,"നാലുപ":12711,"നോക്കാം":12712,"ചൈനയുടെ":12713,"ശ്രീകൃഷ്ണ":12714,"##േട്ടന്റെ":12715,"മറ്റുള്ളവരെ":12716,"വിചിത്രമായ":12717,"പര്‍വത":12718,"ഉല്‍":12719,"ഏറിയ":12720,"ഡാ":12721,"##െൻ":12722,"##ാനന്തരം":12723,"ചെള":12724,"##ോളും":12725,"ഏറ്റെടുത്ത":12726,"എന്നിവയിൽ":12727,"റോബ":12728,"നഗരമായ":12729,"മുമ്പാണ്":12730,"മീശ":12731,"##ുമുറ്റ":12732,"വസ്തുക്കള":12733,"മോഹന്‍":12734,"കർഷകർക്ക്":12735,"യൂണിവേഴ്സിറ്റ":12736,"##പ്രശസ്ത":12737,"പരുവ":12738,"##ബീ":12739,"##ിയയുടെ":12740,"##ിവസം":12741,"കോപ്പ":12742,"മറ്റൊരാള":12743,"അദ്ദേഹത്തിനു":12744,"##ർമാൻ":12745,"##െടുക്കാൻ":12746,"##പ്പെടുന്നുണ്ട്":12747,"നല്‍കണം":12748,"##ിച്ചതിന്":12749,"ചിന്തിച്ചു":12750,"സന്തോഷത്തോടെ":12751,"##ിച്ചുകൊണ്ടിരുന്നു":12752,"നാഷണല്‍":12753,"##വിഭവ":12754,"##ാവല":12755,"അതോടൊപ്പം":12756,"##മ്പല":12757,"വളര്‍ത്തിയ":12758,"നിരന്തര":12759,"##ത്തിലെത്തിയ":12760,"കഥയിൽ":12761,"പഠിപ്പിച്ചു":12762,"##കുളം":12763,"കോട്ടയുടെ":12764,"1989":12765,"തനിയെ":12766,"ആസ്വദിച്ച്":12767,"തിരിച്ചറിയാൻ":12768,"സുഖം":12769,"പതിവായി":12770,"നായ്ക്കള":12771,"സൈക്കിൾ":12772,"ലോക്ക്ഡ":12773,"പ്രജനന":12774,"കമ്മിറ്റി":12775,"54":12776,"ബഷ":12777,"മരുമ":12778,"##ാര്‍ട്ട":12779,"അലസ":12780,"##ുവരെയുള്ള":12781,"നിര്‍ത്തിയ":12782,"നേടിയത്":12783,"മാറിയത്":12784,"മയക്കുമ":12785,"യൂണിറ്റ്":12786,"വാൾ":12787,"ശ്വ":12788,"##ിരിക്കുകയായിരുന്നു":12789,"നിബന്ധന":12790,"##ുകളയ":12791,"##ുകളിലായി":12792,"പറിച്ചു":12793,"##ക്കുണ്ട്":12794,"രണ്ടായി":12795,"ഉയര്‍ന്നു":12796,"##ധികൃത":12797,"വിവാഹിത":12798,"മുകളിലൂടെ":12799,"##നാഥ്":12800,"##ിവരുന്നു":12801,"മുതലായവ":12802,"##േണ്ടതില്ല":12803,"ആന്‍ഡ്":12804,"മഹാഭാരത":12805,"ധനു":12806,"##ിലിരുന്ന":12807,"##ോടാണ്":12808,"നിലയിലാണ്":12809,"കഥയ":12810,"എന്തും":12811,"ലിപ":12812,"വിജയൻ":12813,"കടലിന":12814,"സ്വീകരിച്ച":12815,"പിന്തിര":12816,"ദുരൂഹ":12817,"അഞ്ജ":12818,"രാം":12819,"##േരിയിൽ":12820,"##ാടം":12821,"##ാര്‍ഡ്":12822,"വളർത്തിയ":12823,"##യിലോ":12824,"ശ്രമിച്ച":12825,"താഴെയ":12826,"മധു":12827,"ഭയങ്കര":12828,"1947":12829,"എഴുന്നേറ്റു":12830,"നേപ്പാള":12831,"ആനി":12832,"ഡൗൺ":12833,"യാഹ":12834,"##വര്‍ത്ത":12835,"##ത്തൂർ":12836,"##ിപ്പിക്കാം":12837,"അനുസ":12838,"ശ്രദ്ധിച്ചു":12839,"രക്ഷപ്പെട്ട":12840,"ഹെൽ":12841,"പരീക്ഷണം":12842,"ആശുപത്രിയില്‍":12843,"##ബോധന":12844,"ചെയ്‍തു":12845,"സര്‍വകലാശാല":12846,"നമ്പൂതിരി":12847,"##ുവയസ്സ":12848,"കർമ":12849,"##സേവ":12850,"##ിവരെ":12851,"ചെണ്ട":12852,"##ത്തിലൊരു":12853,"##ത്തില്‍നിന്ന്":12854,"വൈക്കോ":12855,"പോയിരുന്നു":12856,"ഉയര്‍ത്ത":12857,"നേരേ":12858,"മണിമ":12859,"വിരിയ":12860,"അകത്തു":12861,"ലോറ":12862,"ഫെസ്റ്റ":12863,"നനയ്ക്ക":12864,"സുഹൃത്തുക്കൾ":12865,"പരാജയപ്പെട്ട":12866,"ഇസ്ലാം":12867,"ആഗോളതാപ":12868,"ഇസ്രയ":12869,"ആക്കി":12870,"ഈയ":12871,"ലീല":12872,"##നിക":12873,"##നാൾ":12874,"##ാന്ന്":12875,"##ണമാണ്":12876,"##ുമുണ്ടായിരുന്നു":12877,"പെര":12878,"കേവലം":12879,"സെക്യൂരി":12880,"ബിഹ":12881,"കൂടിയായിരുന്നു":12882,"കൂടെയുള്ള":12883,"ആണോ":12884,"സഞ്ചരിക്കുന്ന":12885,"ചെറുതും":12886,"തെളിവുകൾ":12887,"##സംഘം":12888,"ഈയിടെ":12889,"പദ്":12890,"##പാത്ര":12891,"##ിക്കാവുന്നതാണ്":12892,"സമതല":12893,"വൈൽ":12894,"നൽകാം":12895,"##ികളെല്ലാം":12896,"അതിനും":12897,"ദുര്‍":12898,"കോഴി":12899,"മാലദ്വീപ":12900,"വിശ്വസിക്കുന്ന":12901,"സഹോദരൻ":12902,"ഉത്സവം":12903,"ഡയറക്ട":12904,"സിവിൽ":12905,"ഉഷ":12906,"##സർക്ക":12907,"##ുകളായിരുന്നു":12908,"സംവാദ":12909,"##ാടുമുള്ള":12910,"പെണ്ണ്":12911,"##യിലെത്ത":12912,"കാഠ":12913,"എന്തുകൊണ്ട":12914,"കഴിയുന്നത്":12915,"##ിക്കപ്പെട്ടിട്ടുണ്ട്":12916,"##പോകുന്ന":12917,"ശലഭ":12918,"പൊട്ടിത്തെറ":12919,"തേയിലത്തോട്ട":12920,"ലോക്ഡൗൺ":12921,"ഇന്തോനേഷ്യ":12922,"കടൽത്തീര":12923,"ഇപ്പോ":12924,"തിമ":12925,"പിച്ച":12926,"ബയോ":12927,"മീത":12928,"##ിശ":12929,"##ബിയുടെ":12930,"വിക്ട":12931,"##ങ്കി":12932,"##ിവള":12933,"പുത്തൻ":12934,"മൂടിയ":12935,"##യിലെത്തി":12936,"വൈസ്":12937,"ചിത്രശലഭ":12938,"കൂട്ടമായി":12939,"നിന്നോ":12940,"നാട്ടുകാര":12941,"മോച":12942,"##ിനുള്ളിലെ":12943,"##ക്കേറിയ":12944,"തൊഴിലാളി":12945,"ചേരുന്ന":12946,"ചേർന്നുള്ള":12947,"സയൻസ്":12948,"അംഗീകാരം":12949,"46":12950,"അം":12951,"മിത്ര":12952,"##ജോ":12953,"##ുമാറ":12954,"##ുവർഷം":12955,"കൊക്ക":12956,"##ികളായിരുന്നു":12957,"നേട്ടം":12958,"##മേല്‍":12959,"മറഞ്ഞ":12960,"മൂന്നാറ":12961,"മാർപ്പാപ്പ":12962,"സ്ഥാനത്ത്":12963,"വിതരണ":12964,"പ്രകടനം":12965,"മൊബൈല്‍":12966,"പ്രാർത്ഥന":12967,"ടെക്ന":12968,"00":12969,"ഇങ്ങനെയുള്ള":12970,"ജം":12971,"താണ്ട":12972,"##നസ്":12973,"##ിയാൽ":12974,"പ്രോജ":12975,"സ്ത":12976,"##ക്കിംഗ്":12977,"ഭൂഖണ്ഡ":12978,"പ്രവർത്തിക്കുന്നു":12979,"പഴം":12980,"പ്രശംസ":12981,"ഉയരത്തില്‍":12982,"120":12983,"ഉണ്ടാകുന്നത്":12984,"വ്യക്തിത്വ":12985,"തടയാൻ":12986,"നിഗമന":12987,"പ്രസ്ഥാനം":12988,"വലിപ്പം":12989,"##വൃക്ഷ":12990,"ഈന്ത":12991,"ഒഴുക്ക":12992,"രുദ്ര":12993,"വാള":12994,"വെയിൽ":12995,"##ട്യൂ":12996,"##30":12997,"##െയിന്‍":12998,"മാമ":12999,"നടക്കുന്നുണ്ട്":13000,"##യിലായി":13001,"ചിലപ്പോഴ":13002,"എന്നിവരാണ്":13003,"##ുകയാണെങ്കിൽ":13004,"പറഞ്ഞില്ല":13005,"ഉയർത്തി":13006,"രാജ്യങ്ങളിലും":13007,"കൂടിയുണ്ട്":13008,"സാഹിത്യം":13009,"തുടങ്ങിയവയാണ്":13010,"വഴിയൊരു":13011,"കണക്കാക്കുന്നു":13012,"ചിതറ":13013,"മാത":13014,"പഠിപ്പിച്ച":13015,"##ുകയില്ല":13016,"അതിവേഗം":13017,"മഹത്തായ":13018,"മറ്റുള്ളവരുടെ":13019,"ഗാന്ധിജി":13020,"വിപ്ലവകാര":13021,"മുറ്റത്ത്":13022,"##സമ്മത":13023,"ഇഞ്ച്":13024,"ഊന്ന":13025,"##ികയും":13026,"##രിഞ്ഞു":13027,"സിഖ്":13028,"##യ്ക്കിട":13029,"##ീക്ഷണ":13030,"നാടിനെ":13031,"നിയമങ്ങൾ":13032,"##ശേഷമാണ്":13033,"പണികഴ":13034,"##പ്പൊടി":13035,"##പൂർവം":13036,"തയാറാക്കിയ":13037,"ഭർത്താവ":13038,"##ുമ്പോൾ":13039,"അൻപ":13040,"എക്സി":13041,"കൽക്ക":13042,"ചാരു":13043,"ഫീസ്":13044,"##ിപ്":13045,"##ൊഴു":13046,"##11":13047,"##പ്പില":13048,"##ിരിക്കുകയ":13049,"അതിലും":13050,"കോർപ്പ":13051,"##ൂരിന്റെ":13052,"റോസ":13053,"##മുണ്ടാകും":13054,"പാഴ":13055,"പറ്റൂ":13056,"ഓൺലൈന":13057,"ആവിഷ്കര":13058,"ഐതിഹ്യ":13059,"കമ്പ്യൂട്ടർ":13060,"നെഗറ്റീവ്":13061,"കപ":13062,"##ാത്ത്":13063,"##വനും":13064,"##വകാശ":13065,"അവശ":13066,"##ങ്ങൾക്കായി":13067,"##ടുത്താണ്":13068,"പൊറ":13069,"പൊക്ക":13070,"എത്തിച്ചു":13071,"അർഥ":13072,"സുരക്ഷിതമായി":13073,"രഹസ്യം":13074,"സൗഹൃദം":13075,"##ാരംഭിച്ചു":13076,"പോരാട്ടം":13077,"ഭൂരിപക്ഷം":13078,"പ്രസ്താവന":13079,"മുനിസിപ്പ":13080,"കൊറോണക്ക":13081,"ആട്":13082,"ശശി":13083,"##നാഭ":13084,"##ഡര്‍":13085,"##പ്പുല":13086,"തിരമാല":13087,"പറയുമ്പോള്‍":13088,"പുറപ്പെട്ടു":13089,"##ഫ്റ്റ":13090,"വായ്പ":13091,"ട്രൈ":13092,"ക്ലബ്":13093,"ആത്മവിശ്വാസം":13094,"തണൽ":13095,"പശുക്കള്‍":13096,"ഉത്ഭവ":13097,"അഭിനയിച്ച":13098,"തകരാറ":13099,"അംഗീകാര":13100,"എല്ലായിടത്തും":13101,"ഫയർ":13102,"സാര്‍":13103,"##വാക":13104,"##ിച്ചായിരുന്നു":13105,"മാള":13106,"##ദേവൻ":13107,"##പ്പോടെ":13108,"##പ്രേമ":13109,"ട്രാൻ":13110,"നേരത്ത്":13111,"ഇതിനകം":13112,"പാർപ്പ":13113,"സ്പ്ര":13114,"##ിക്കപ്പെട്ടിരുന്നു":13115,"പരിചിത":13116,"സ്നേഹവും":13117,"പുരുഷന്മാരും":13118,"##ങ്ങളിലൂടെയും":13119,"കൃഷ്ണൻ":13120,"സമ്മതിച്ചു":13121,"##ാറ്റിക്":13122,"ഖനനം":13123,"ദേശീയോദ്യാനം":13124,"സഫാരി":13125,"താൽപര്യം":13126,"ഗവൺമെന്റ്":13127,"ഞര":13128,"മിൽ":13129,"ഹൊ":13130,"##രുന്നു":13131,"##ഷള":13132,"##റുവ":13133,"##ിലത്തെ":13134,"ഉണ്ടോ":13135,"സുഷ":13136,"പഠിപ്പിക്ക":13137,"കുട്ടികളിൽ":13138,"സൗമ":13139,"##ണ്ഡല":13140,"കടലിന്റെ":13141,"മൂല്യം":13142,"രംഗം":13143,"ഒളിച്ച":13144,"##ച്ചെല":13145,"റ്റി":13146,"പാർലമെന്റ":13147,"ശിൽപ":13148,"വർക്ക":13149,"##ട്ടിക":13150,"##ിനോടും":13151,"തിരുമ":13152,"ദേശാന്തരം":13153,"##ോസിന്റെ":13154,"എഴുതുന്നത്":13155,"കുമര":13156,"നീലഗിരി":13157,"##മായിട്ടുണ്ട്":13158,"##ച്ചെട":13159,"ദുബായ്":13160,"മംഗോള":13161,"മദ്രാസ":13162,"ലൈസൻസ്":13163,"അധ്യക്ഷ":13164,"ഹരിയാന":13165,"ദക്ഷിണാഫ്രിക്ക":13166,"എമ":13167,"കടിയ":13168,"യൗ":13169,"##മാത്ര":13170,"##ൽസ്":13171,"##ിക്കുമ്പോഴ":13172,"ഒരുക്കുന്ന":13173,"##ത്തെക്കുറിച്ചും":13174,"കോളി":13175,"##ഗ്ധ":13176,"കലാസ":13177,"##ുകൊണ്ടിരുന്ന":13178,"##ഡിയം":13179,"മഴയെ":13180,"##േറ്റം":13181,"ഉടന്‍":13182,"മാറുന്ന":13183,"1500":13184,"അവസ്ഥയിൽ":13185,"ഡോക്ടർമാർ":13186,"##പ്രവേശ":13187,"തമിഴ്നാട്":13188,"ആകർഷണം":13189,"വേഗത":13190,"ഗുണനില":13191,"പ്രശ്‌നങ്ങള്‍":13192,"സ്രാവ":13193,"##ുമൂലം":13194,"ഗ്യാല":13195,"ഊട്ട":13196,"ഓക്സ":13197,"ഡൊ":13198,"ധർമ":13199,"മയില":13200,"മഞ്ഞ്":13201,"##നങ്ങളെ":13202,"##ക്കണം":13203,"##ണ്ഡ്":13204,"##തിയായ":13205,"കണ്ടിട്ടുണ്ട്":13206,"മരിച്ചത്":13207,"മെലി":13208,"കണക്കുകൂട്ട":13209,"##ിയ്ക്കും":13210,"1993":13211,"ആളുകൾക്ക്":13212,"എതിരാള":13213,"കുട്ടിക്കാലം":13214,"ചെയ്‌ത":13215,"വായി":13216,"വഷള":13217,"##പാര":13218,"##ക്കറ":13219,"##ക്കോട്ട":13220,"##ത്തോടും":13221,"##ല്ലാവ":13222,"സിഗര":13223,"ഭാഗവും":13224,"ഉള്ളില":13225,"രാജ്യങ്ങളില്‍":13226,"കരുണാക":13227,"നാടന്‍":13228,"ആനയെ":13229,"പദ്ധതികൾ":13230,"കാർട്ട":13231,"കാടും":13232,"വിസ്തൃതിയ":13233,"ചെയ്തിരുന്നത്":13234,"##ിലേക്കെത്ത":13235,"മസാല":13236,"അന്നും":13237,"##ോൻ":13238,"##ഡിലെ":13239,"##ായുധ":13240,"##ിരിയ":13241,"##ിച്ചെടുത്ത":13242,"##ിനെയ":13243,"##ികര":13244,"##ങ്ങളെയാണ്":13245,"സമി":13246,"##ാദന":13247,"വാങ്ങുന്ന":13248,"ദേവാലയ":13249,"നോക്കിയാല്‍":13250,"പ്രവര്‍ത്തനങ്ങള്‍":13251,"വടക്കുകിഴ":13252,"##ൻഡിലെ":13253,"അബദ്ധ":13254,"വനംവകുപ്പ്":13255,"അഞ്ഞ":13256,"ഫൈന":13257,"##ശ്മ":13258,"##വയെ":13259,"കുപ്രസിദ്ധ":13260,"##നിഷ":13261,"വേണമെന്ന്":13262,"തിരിക":13263,"പ്രവച":13264,"വഴികൾ":13265,"ലഭിക്കുന്നു":13266,"കരിയില":13267,"ഫെമിനി":13268,"1986":13269,"ആഘാത":13270,"ഇരുപത്":13271,"കിലോമീറ്ററോളം":13272,"അഭിമുഖീകര":13273,"ഗംഭീര":13274,"ഉമ":13275,"ണ്ട":13276,"##വാരം":13277,"##യുണ്ടായിരുന്നു":13278,"##ിയല്ല":13279,"##െയില":13280,"##നിമിഷ":13281,"##ദ്ധ്യമ":13282,"##വിടെയോ":13283,"ഉണ്ടെന്ന്":13284,"യാത്രയില്‍":13285,"അനവധി":13286,"വർഷങ്ങളിൽ":13287,"മെറ്റ":13288,"കിടയ്ക്ക":13289,"##സ്വഭാവ":13290,"എവിടെയ":13291,"പൂർണമായി":13292,"കുട്ടിക്ക്":13293,"മിനിറ്റ":13294,"തലസ്ഥാനം":13295,"ആംബുല":13296,"അൾ":13297,"തരും":13298,"##ുത്തു":13299,"##െറ":13300,"പുല്‍":13301,"വഴിക":13302,"##ോർട്ട്":13303,"രാജ്യങ്ങളും":13304,"അലങ്കര":13305,"പങ്കെടുത്തു":13306,"അച്ഛന്":13307,"യുണ":13308,"കണക്കാക്കിയ":13309,"കാത്തിരിക്കുന്ന":13310,"തിങ്ക":13311,"അന്തർ":13312,"റൂട്ട്":13313,"ആഴത്തില്‍":13314,"സ്ഥിതിചെയ്യുന്നു":13315,"ശ്വാസകോശ":13316,"ഗായ":13317,"##ുഷ":13318,"##ൂണ്‍":13319,"##ിക്കുമ്പോഴാണ്":13320,"അവയില്‍":13321,"കുരിശ":13322,"##ുവയ്ക്ക":13323,"##ികളോ":13324,"##ാകുമ്പോൾ":13325,"##പോര്‍":13326,"##ക്കാരി":13327,"ഗ്രാമത്തില്‍":13328,"പാചകം":13329,"1994":13330,"വടക്കും":13331,"##രികില്‍":13332,"നാഗരിക":13333,"ഒരാൾക്ക്":13334,"നിർബന്ധിത":13335,"##ര്‍മന്‍":13336,"ജലസേചന":13337,"ടിക്കറ്റ":13338,"ദാ":13339,"രമേശ":13340,"വാൻ":13341,"ഹോർ":13342,"##തിലുള്ള":13343,"##ങ്ങളോടെ":13344,"##ദേവത":13345,"ഇതായിരുന്നു":13346,"നിന്നുമുള്ള":13347,"വിവര്‍ത്ത":13348,"ദ്വാര":13349,"##ുകാർക്ക്":13350,"കിഴക്കു":13351,"നടപടിയ":13352,"വേറെയും":13353,"അധികൃതര്‍":13354,"സദാചാര":13355,"മേൽനോട്ട":13356,"നിർമാണം":13357,"##ശരീര":13358,"സൊസൈറ്റി":13359,"ഐക്യരാഷ്ട്രസഭ":13360,"ഗലീലിയോ":13361,"യമുന":13362,"##ലുകളിൽ":13363,"##ൂട്ടി":13364,"##ങ്ങളിലേ":13365,"പൊട":13366,"ഒരോ":13367,"ഭൂകമ്പ":13368,"##േക്കുള്ള":13369,"അറബ്":13370,"തുർക്ക":13371,"ദൃശ്യമ":13372,"എന്നറിയപ്പെടുന്നു":13373,"##ിച്ചെടുത്ത്":13374,"വിത്തുകൾ":13375,"##ൊടുവിൽ":13376,"ചൂര":13377,"ലൊക്ക":13378,"ശനിയ":13379,"##നാക്കി":13380,"##തീര":13381,"##ലിലും":13382,"##കവും":13383,"##വിറ":13384,"പോകുമ്പോള്‍":13385,"ശരിയാണ്":13386,"##വുമായിരുന്നു":13387,"അധികവും":13388,"സംഘർഷ":13389,"മാറ്റിമറ":13390,"എത്രത്തോളം":13391,"കമ്മീഷൻ":13392,"##ൈറ്റഡ്":13393,"കൊടുങ്ക":13394,"പെയ്":13395,"റിച്ച":13396,"##ിഴ":13397,"##ണും":13398,"##ഴുക":13399,"##ൂമ":13400,"##ിക്കളി":13401,"##ിക്കണമെന്നും":13402,"##ിരിപ്പ":13403,"സംയോജ":13404,"വേവ":13405,"##ാപു":13406,"മൂള":13407,"കൈയ":13408,"##കൂടിയ":13409,"തൊല":13410,"##വിടൻ":13411,"എല്ലാവരുടെയും":13412,"കർഷകരുടെ":13413,"##നാമം":13414,"വിഷ്ണു":13415,"ആര്‍ക്ക":13416,"ഈട":13417,"##പ്പന്റെ":13418,"##ാണെ":13419,"##ിരിക്കുന്നത":13420,"ഉണ്ടാവും":13421,"ഇടമാണ്":13422,"##ുകയായിരുന്ന":13423,"കലര്‍ന്ന":13424,"##ുകൊണ്ടുള്ള":13425,"##മുണ്ടാക്ക":13426,"ആഴത്തിൽ":13427,"അറിവ്":13428,"കാശ്":13429,"നടപ്പിലാക്ക":13430,"ഹൈന്ദവ":13431,"എംബ":13432,"മംഗല":13433,"##സറ":13434,"##ലിലൂടെ":13435,"അതാ":13436,"##കളെല്ലാം":13437,"##ക്രീറ്റ്":13438,"വഴിമ":13439,"കളിപ്പാട്ട":13440,"സംഭവിക്കുന്നത്":13441,"പഴക്കം":13442,"ചെറുകിട":13443,"മകനായി":13444,"നശിപ്പിക്ക":13445,"ലണ്ടൻ":13446,"പിടികൂടിയ":13447,"85":13448,"ചാൾ":13449,"##തെന്നാണ്":13450,"##ീഷ്യ":13451,"##ൽസ":13452,"##ാനാകും":13453,"മുങ്ങി":13454,"കടിച്ചു":13455,"ചിത്രങ്ങളിൽ":13456,"##ാന്തം":13457,"ആളുകള":13458,"വിലക്ക":13459,"കണ്ടെത്തിയിരുന്നു":13460,"##നിയമ":13461,"1975":13462,"പകരുന്ന":13463,"വിത്തുകള്‍":13464,"തന്മാത്ര":13465,"ഭൂപ്രകൃ":13466,"യഹോവയുടെ":13467,"84":13468,"തുന്ന":13469,"##രീതി":13470,"##മുത":13471,"##ീനി":13472,"##ടുപ്പം":13473,"തുടച്ചു":13474,"കഴിക്കാന്‍":13475,"പലായനം":13476,"അനധികൃത":13477,"ആശംസ":13478,"നെഹ്‌":13479,"ഫ്രണ്ട്":13480,"സത്യസന്ധ":13481,"##ിക്കൊണ്ടിരിക്കുന്ന":13482,"ജൈവവൈവിധ":13483,"പരിണാമ":13484,"വിശകലനം":13485,"ഇടുങ്ങിയ":13486,"ഗ്വ":13487,"രാഘ":13488,"##യൊന്നും":13489,"##ച്ചേ":13490,"##റിയിലെ":13491,"ചെയ്യേണ്ടത്":13492,"കേറി":13493,"ശേഷിയുള്ള":13494,"നിലവിലുണ്ട്":13495,"രാമൻ":13496,"ആശയവ":13497,"ഫോണിൽ":13498,"റിപ്പോര്‍ട്ട":13499,"കംപ്യൂട്ട":13500,"കംബ":13501,"ജേക്ക":13502,"പഴു":13503,"##നാന":13504,"##ായപ്പോൾ":13505,"കുലു":13506,"##ടിക്ക്":13507,"##ിമാരുടെ":13508,"നീക്കി":13509,"അടങ്ങുന്ന":13510,"##മല്ലേ":13511,"ആനയുടെ":13512,"തീരുമാനിച്ചത്":13513,"നിലവിലെ":13514,"തകർക്ക":13515,"വേഗത്തില്‍":13516,"എതിർപ്പ":13517,"##നീയമായ":13518,"അടിയന്തരാവസ്ഥ":13519,"##‌വ":13520,"കേറ":13521,"മറ്റെല്ല":13522,"ആര്":13523,"വായിക്കാൻ":13524,"മറഞ്ഞു":13525,"പങ്കുവെച്ച":13526,"താമസിക്കുന്നത്":13527,"യുനെ":13528,"ബാധ്യത":13529,"ബൈബിള":13530,"യൂണിറ്റ":13531,"കൗൺസില":13532,"ഉപഭോക്ത":13533,"മൈന":13534,"##ടേയും":13535,"##ൂറ്":13536,"##ർഹ":13537,"##ിയുമായ":13538,"##പ്പര":13539,"##പ്പള്ള":13540,"##ുവെന്ന്":13541,"##ുണ്ടെന്നു":13542,"##ാപം":13543,"പറയണം":13544,"മലയോര":13545,"കഥയിലെ":13546,"പക്ഷം":13547,"##പ്പെടുത്തിയിട്ടുണ്ട്":13548,"അർഥം":13549,"1984":13550,"1977":13551,"അവതരിപ്പിച്ചു":13552,"##ഫലമായി":13553,"കുരുമുളക്":13554,"സഞ്ജ":13555,"##െണ്ണ":13556,"##ാവ്യ":13557,"##കരായ":13558,"പിങ്ക്":13559,"##തിനാലും":13560,"##ങ്ങള്‍ക്കായി":13561,"ജീന":13562,"ഉപയോഗിക്കാൻ":13563,"അമ്മേ":13564,"വായിക്കുന്ന":13565,"##സ്‌കാരം":13566,"ജപ്പാനിലെ":13567,"ഓണ്‍ലൈന":13568,"താല്‍പര":13569,"ജമാഅത്തെ":13570,"41":13571,"കൽപ്പ":13572,"ജാക്ക":13573,"ന്‌":13574,"സരോ":13575,"##ലിലേക്ക്":13576,"##ാണത്രേ":13577,"##സ്ഥലം":13578,"##ുന്നതായും":13579,"മനുഷ്യന്":13580,"##ർവ്വ":13581,"ഇതിനുള്ള":13582,"അകത്ത്":13583,"സന്ദര്‍ഭ":13584,"പ്രകൃതിയെ":13585,"ചലന":13586,"കൊടുക്കാൻ":13587,"തൊഴില്‍":13588,"കയറാൻ":13589,"പഠനത്തിൽ":13590,"മാര്‍ച്ച്":13591,"സ്‌നേഹം":13592,"എഴുന്നേറ്റ്":13593,"തക്കാളി":13594,"ഭ്രമണ":13595,"കോർപ്പറ":13596,"അഹമ്മദ്":13597,"ജെയിംസ്":13598,"ഫീൽ":13599,"ഭീ":13600,"##ോപ്റ്റ":13601,"##ിരിക്കാം":13602,"നിവാസ":13603,"##മ്പുര":13604,"മറ്റേ":13605,"ഇതിന്‍റെ":13606,"പേരിലും":13607,"##മുണ":13608,"##ത്തേക്കും":13609,"അവിടെനിന്ന്":13610,"##ീനിയ":13611,"##േറ്റീവ്":13612,"സംഭവിക്കുന്ന":13613,"നഷ്ടപ്പെട്ടു":13614,"വിപണി":13615,"കേട്ടത്":13616,"##ൻസിന്റെ":13617,"മിക്കപ്പോഴും":13618,"കാവൽ":13619,"മൗല":13620,"##ചിത്രം":13621,"പ്രവാസിയുടെ":13622,"ഗവണ്മെന്റ്":13623,"ശശിക":13624,"ക്ഷീണം":13625,"ഖണ്ഡ":13626,"ട്ട":13627,"ഹാര":13628,"##നയുടെ":13629,"##99":13630,"##ികളുള്ള":13631,"##ദ്ധ്യം":13632,"##ുപറയ":13633,"എന്തൊരു":13634,"പോക":13635,"കൈയില്‍":13636,"അവിടെയും":13637,"##മെടുത്ത്":13638,"ഉറുമ്പ":13639,"റോക്ക്":13640,"ലക്ഷത്തോളം":13641,"രോഗപ്രതിരോധ":13642,"##േക്കാവുന്ന":13643,"സമീപത്തെ":13644,"##െത്തുന്നത്":13645,"ഭയന്നു":13646,"അവിടേക്ക്":13647,"##ായിട്ടുണ്ട്":13648,"വിഷയത്തിൽ":13649,"കാര്യമില്ല":13650,"ഷാർ":13651,"സീറ്റ്":13652,"##ാക്യ":13653,"##ക്കുല":13654,"##പ്രയ":13655,"പെറ്റ":13656,"കാട്ടുപോ":13657,"##ാഥ്":13658,"സര്‍വ്വ":13659,"മാതാപിതാക്കള്‍":13660,"ഇന്റര്‍":13661,"സോഷ്യലിസ്റ്റ്":13662,"##വൈദ്യ":13663,"പ്രാധാന്യമുള്ള":13664,"സെൻട്ര":13665,"പ്രകൃതിദത്ത":13666,"ബലം":13667,"##വെന്നാണ്":13668,"##ഗഢ":13669,"##ായിരത്തോളം":13670,"മാന്യ":13671,"മുഹമ്മദ":13672,"##തിയായി":13673,"വീഴ്ച":13674,"##ത്തിനോ":13675,"##ുപണ":13676,"നേർത്ത":13677,"ഇന്ത്യയെ":13678,"കേന്ദ്രങ്ങൾ":13679,"സ്ഥാപനങ്ങൾ":13680,"##വാക്യ":13681,"കാട്ടു":13682,"ഫ്രെ":13683,"യൂട്യൂ":13684,"##ാലിബ":13685,"തയ്യാറായി":13686,"പരിപാടികൾ":13687,"##ുകൊണ്ട":13688,"കൗൺസിൽ":13689,"ബലാത്സംഗം":13690,"ഈജിപ്തിലെ":13691,"അഷ്ട":13692,"ജേത":13693,"##കനെ":13694,"##ൂന്ന":13695,"##ിക്കേ":13696,"##കളോ":13697,"മൂടി":13698,"##ാശി":13699,"പൊട്ടിയ":13700,"ഇവയ്ക്കു":13701,"##യ്ക്കൊപ്പം":13702,"വെള്ളി":13703,"നിറച്ച്":13704,"സംഭവങ്ങൾ":13705,"വിരിഞ്ഞ":13706,"തൂക്കിയ":13707,"ആക്രമണത്തിൽ":13708,"##പദം":13709,"##വസ്തുക്കൾ":13710,"ഫാഷ":13711,"##ുകളി":13712,"##കളിലാണ്":13713,"ആയിരുന്നില്ല":13714,"പ്രവണത":13715,"ക്രെ":13716,"നഗരത്തില്‍":13717,"ഭയന്ന്":13718,"തകർന്നു":13719,"കമ്മ്യൂണി":13720,"കച്ചവടം":13721,"തിയേറ്റ":13722,"നൊബ":13723,"ഗന്ധം":13724,"പൊടുന്നനെ":13725,"68":13726,"ഗിരി":13727,"ചീര":13728,"തേര":13729,"താനും":13730,"നജീ":13731,"##ബാമ":13732,"##ൊടുക്ക":13733,"കുറുക്ക":13734,"ആയതിനാൽ":13735,"കലാ":13736,"കിട്ടുന്നത്":13737,"നടത്താം":13738,"##സ്വാമ":13739,"തിരിച്ചുവര":13740,"##ിക്‌":13741,"മനസ്സിലാക":13742,"പരിചരണ":13743,"ചുമ്മ":13744,"##ിട്ടുണ്ടാകും":13745,"##പാദന":13746,"##ോലോക":13747,"നോട്ടം":13748,"ആരോപണം":13749,"ഷൂട്ട്":13750,"ലഹരി":13751,"സൗജന്യമായി":13752,"അവയവ":13753,"ആഗ്ര":13754,"വാട":13755,"##രഹിത":13756,"##ഷുറ":13757,"##യെന്ന്":13758,"##ട്ടില്ല":13759,"##്യാ":13760,"##ാരിത":13761,"##ങ്ങളേ":13762,"##ാനുമുള്ള":13763,"##ുകളായ":13764,"വരൂ":13765,"സ്വർഗ":13766,"##ഡ്സ്":13767,"പറയാറുണ്ട്":13768,"സാക്ഷര":13769,"അവസാനിച്ചു":13770,"സംഗമ":13771,"ചോദ്യങ്ങൾ":13772,"ഉത്തരാഖ":13773,"വിശ്വസിച്ചു":13774,"1982":13775,"പ്ലാസ്റ്റ":13776,"വെറുമൊരു":13777,"നാരങ്ങ":13778,"തൊഴിലാളികൾ":13779,"എറണാകുള":13780,"യാഹൂ":13781,"പതിയ":13782,"##ോണം":13783,"##മൊന്നുമില്ല":13784,"##ജക്ട്":13785,"മുറിച്ച്":13786,"##ിപ്പിച്ചിട്ടുണ്ട്":13787,"##ുനില്‍":13788,"നടപ്പാത":13789,"##ിരുത്തി":13790,"സ്വാതന്ത്ര്യസമര":13791,"ചുഴലിക്കാറ്റ":13792,"നവോത്ഥാന":13793,"പാണ്ട":13794,"രു":13795,"##ർത്തല":13796,"പരിധി":13797,"കാലിത്തീറ്റ":13798,"ഉണ്ടെങ്കിൽ":13799,"പൂമ്പ":13800,"ഇടയില്‍":13801,"കഴിഞ്ഞത്":13802,"ഉയി":13803,"##ളിത്":13804,"##ക്കിടയിലെ":13805,"1948":13806,"##ുർവേദ":13807,"ഖുർആൻ":13808,"സൈലന്റ്":13809,"ഫെസ്റ്റിവ":13810,"ഇട്ട്":13811,"ബിന്ദ":13812,"##ത്താ":13813,"##ുന്നതുകൊണ്ട്":13814,"##സിക്":13815,"ചിത്രകല":13816,"ഉറച്ചു":13817,"മുമ്പിൽ":13818,"പ്രസവം":13819,"പതിനേഴ":13820,"മിക്കവരും":13821,"പൊലീസിന്റെ":13822,"ഒതുങ്ങ":13823,"സിംഗപ്പ":13824,"##ത്തിൻ്റെ":13825,"താറാവ":13826,"ഓക്സിജൻ":13827,"ഇറക്കുമതി":13828,"ഈച്ച":13829,"യാദൃ":13830,"##ണിയുടെ":13831,"##റവ":13832,"##േൽക്ക":13833,"##ുവഴ":13834,"##ുടമ":13835,"##റിസ്":13836,"പലരുടെയും":13837,"##വ്‌":13838,"കൂട്ടത്തില്‍":13839,"മറുവശ":13840,"ഭാഷയുടെ":13841,"വര്‍ഷങ്ങളായി":13842,"സങ്കൽപ":13843,"പാട്ടു":13844,"##ാന്വേഷണ":13845,"എനിക്കൊരു":13846,"ഡയല":13847,"തണുപ്പും":13848,"ഉദാഹരണം":13849,"കന്നഡ":13850,"പ്രചോദന":13851,"അക്ഷരം":13852,"സുൽത്താൻ":13853,"ഇൻസ":13854,"##ണിഞ്ഞ":13855,"പ്രേര":13856,"സംതൃ":13857,"വീസ":13858,"##ുപുറ":13859,"തെരു":13860,"വന്നപ്പോള്‍":13861,"കൊണ്ടുവന്നു":13862,"ദിവസേന":13863,"കുടുംബത്തിന്റെ":13864,"പച്ചില":13865,"സന്തോഷ്":13866,"മകനും":13867,"1957":13868,"പുള്ളി":13869,"താൽക്കാല":13870,"എയർപോ":13871,"തുല്യ":13872,"ആംഗ്ലോ":13873,"തീര്‍ച്ചയായും":13874,"എക്‌":13875,"എക്സ്":13876,"ഓർഗ":13877,"കവല":13878,"ജിയ":13879,"തച്ച":13880,"##സന":13881,"##കക്ഷ":13882,"##റങ്ങി":13883,"##ൃതിയിൽ":13884,"##ികിട്ട":13885,"##ിടയിലാണ്":13886,"ചെയ്യുമ്പോള്‍":13887,"പെന്‍":13888,"കാലത്തും":13889,"ഉണ്ടെങ്കിലും":13890,"##പ്പെടുത്താന്‍":13891,"ജോര്‍":13892,"##ത്തേക്കാൾ":13893,"പറഞ്ഞപ്പോള്‍":13894,"കാര്യത്തിലും":13895,"ഭാഷയില്‍":13896,"സ്പീഷ":13897,"##ിക്കേണ്ടതുണ്ട്":13898,"മുട്ടയിട":13899,"അടിസ്ഥാനമാക്കിയ":13900,"കേൾക്കാൻ":13901,"പങ്കുവച്ചത്":13902,"ഹെലികോപ്റ്റ":13903,"ഒട്ടുമിക്ക":13904,"ജമ്മ":13905,"നാവ":13906,"മോർ":13907,"##ുല്ല":13908,"##ണിന്റെ":13909,"മാമ്പ":13910,"ക്വി":13911,"അകമ്പ":13912,"ബ്ലോക്ക്":13913,"കൂടുതലുള്ള":13914,"ദൃശ്യമാണ്":13915,"##ിട്ടുണ്ടെങ്കിലും":13916,"##ുമെല്ലാമ":13917,"നട്ടുവള":13918,"തെക്കുകിഴ":13919,"പ്രതിനിധീകര":13920,"സൈക്കിള":13921,"കപ്പ്":13922,"ദില":13923,"##സിലും":13924,"##യച്ചു":13925,"##കത":13926,"##പ്പിച്ച്":13927,"##ിക്കഥ":13928,"പ്രോ":13929,"മുത":13930,"വേരു":13931,"പെരുവ":13932,"##സ്റ്റും":13933,"അനുഭൂ":13934,"വൈകല":13935,"നാല്പ":13936,"എന്നാണ്‌":13937,"സൈബ":13938,"ഉൾപ്പെടുത്ത":13939,"അന്തിമ":13940,"ആധാര":13941,"അനുമാന":13942,"നിലനിൽക്കുന്ന":13943,"പുൽമേട":13944,"ഉണ്ണി":13945,"റിമ":13946,"റഷീ":13947,"വവ്വ":13948,"##യുമെല്ലാം":13949,"##ാണീ":13950,"##രുന്ന്":13951,"മുസ":13952,"##ാഹര":13953,"നോർത്ത്":13954,"##ത്സാഹ":13955,"കൂട്ടക്കൊല":13956,"കലണ്ടർ":13957,"ബ്രെ":13958,"ദിവസങ്ങളില്‍":13959,"രക്ഷാപ്ര":13960,"പ്രായത്തിൽ":13961,"ഡെസ്റ്റിന":13962,"മൗനം":13963,"ഹിറ്റ്‌ല":13964,"മനോജ്":13965,"ലളിതമായ":13966,"##ോതസ്സ":13967,"പുറന്തള്ള":13968,"ബ്യൂ":13969,"##േഷിന്റെ":13970,"##ാധന":13971,"തീര്‍":13972,"അധോലോക":13973,"അഭിമ":13974,"കലാം":13975,"നഗരസഭ":13976,"സംസ്ഥാനങ്ങളിൽ":13977,"കീഴടക്ക":13978,"ഭാവിയിൽ":13979,"നരക":13980,"ഛന്ദ":13981,"ബാറ്റ":13982,"രോഷ":13983,"##ിലാണു":13984,"##പ്പായ":13985,"##ുള്ളൻ":13986,"##ുവേല":13987,"##െന്നായിരുന്നു":13988,"##ഷ്ടം":13989,"കേട":13990,"##സ്റ്റി":13991,"ഗ്രീന്‍":13992,"നിർണ്ണ":13993,"പഠിക്കാന്‍":13994,"സൂഫി":13995,"ഇറക്ക":13996,"അമേരിക്കയില്‍":13997,"പതിനഞ്ചു":13998,"വളര്‍ത്തുന്ന":13999,"സമാധാനം":14000,"##ാനാകാത്ത":14001,"താരതമ്യം":14002,"തെരഞ്ഞെടുപ്പിൽ":14003,"ഡിജിറ്റൽ":14004,"അക്കാര":14005,"ഐശ്വ":14006,"ചകിര":14007,"നടുക്ക":14008,"പാറ്റ":14009,"മഞ്ജു":14010,"##മാം":14011,"##്ലി":14012,"##ികാര":14013,"##ങ്ങളോടും":14014,"##ാനാ":14015,"നിമി":14016,"##ിലേറ്റ":14017,"തിരഞ്ഞു":14018,"##ിനെതിര":14019,"പുറപ്പെട്ട":14020,"ഏറ്റുമുട്ട":14021,"ഇവിടെയും":14022,"ശ്രമിക്കുന്നത്":14023,"കേന്ദ്രമാണ്":14024,"നന്നേ":14025,"ചുരുങ്ങിയത്":14026,"##വസാന":14027,"കണക്കാക്കപ്പെടുന്നു":14028,"പച്ചക്കറികളും":14029,"ആവേശം":14030,"വെടിയുണ്ട":14031,"##സംവിധാനം":14032,"കോയമ്പ":14033,"വിവർത്തനം":14034,"##കർഷ":14035,"##റിലേക്ക്":14036,"##ക്കണക്കിനു":14037,"##ില്ലാ":14038,"##ാക്കൽ":14039,"##ടിയിലെ":14040,"##സംബന്ധ":14041,"##േണ്ടിവന്നു":14042,"എല്ലാത്ത":14043,"സൂപ്പര്‍":14044,"കണ്ണും":14045,"കഴിയുമ്പോൾ":14046,"1972":14047,"നല്‍കിയത്":14048,"സർവകലാശാലയിൽ":14049,"യൂണിവേഴ്‌":14050,"അസ്വസ്ഥത":14051,"തെറ്റിദ്ധ":14052,"അടിത്തറ":14053,"വെള്ളിയാഴ്ച":14054,"പുലർച്ചെ":14055,"ഉപ്പ്":14056,"##മാവും":14057,"##ാർശ":14058,"##ിടുന്നത്":14059,"വരുന്നത":14060,"വേലിയ":14061,"ജനങ്ങള്‍":14062,"തോൽപ്പ":14063,"അറിയാവുന്ന":14064,"##സ്‌കോ":14065,"മിഥ":14066,"പെട്ടന്ന്":14067,"മത്സ്യം":14068,"വ്യാപകമായ":14069,"പത്രം":14070,"കട്ടില":14071,"##മൂലം":14072,"##ിക്കെതിരെ":14073,"പ്രകോപ":14074,"മസ്ജിദ":14075,"ചവിട്ടി":14076,"##റാം":14077,"##എച്ച്":14078,"പ്രൗ":14079,"##ുള്ളതാണ്":14080,"##ില്ലെങ്കില്‍":14081,"കോര":14082,"##പ്പെടാന്‍":14083,"മെഡി":14084,"ബന്ധപ്പെട്ടു":14085,"കുഞ്ഞിന്":14086,"##വരെല്ലാം":14087,"എത്തിയപ്പോൾ":14088,"അവതരിപ്പിച്ച":14089,"ഒഴുകിയെ":14090,"ഐക്യനാട":14091,"മൈസൂർ":14092,"ആട്ടിൻ":14093,"ഉല്ല":14094,"പടി":14095,"##ില്ലെന്നു":14096,"വെന്ത":14097,"##ത്തിയെ":14098,"##സിംഹ":14099,"സാധന":14100,"നിറയുന്ന":14101,"വർഷത്തോളം":14102,"ഇരുട്ട്":14103,"##നേയും":14104,"##ിയാണ്‌":14105,"മഴക്കാട":14106,"വീടുകള്‍":14107,"ശരീരവും":14108,"ശരീരത്തെ":14109,"പാട്ടും":14110,"1988":14111,"1979":14112,"രുചിയ":14113,"പരിഹസ":14114,"അഗാധ":14115,"##ോത്സവ":14116,"മോളെ":14117,"കവാടം":14118,"റിപ്പബ്ലിക്":14119,"മുസ്ലീ":14120,"##പരിശോധന":14121,"ചിന്":14122,"മങ്ങിയ":14123,"##വയ്ക്ക":14124,"##ൻക":14125,"##ാണിത":14126,"##ിനകത്ത്":14127,"##ിപ്പൂ":14128,"കേശ":14129,"സിസ":14130,"എഴുത്തു":14131,"എത്തുന്നു":14132,"തുഴ":14133,"മുതലേ":14134,"ആസ്വദിക്കാം":14135,"ഫോട്ടോയും":14136,"പന്ത്രണ്ട്":14137,"അസിസ്റ്റ":14138,"അങ്ങനെയുള്ള":14139,"ആര്‍ത്ത":14140,"എൺ":14141,"എങ്ങും":14142,"ഓര്‍ത്ത":14143,"##വാസം":14144,"##ുവായി":14145,"മുഹ":14146,"സമര്‍പ്പ":14147,"##ത്തിയാൽ":14148,"പരിണമ":14149,"കടമ":14150,"കെഎസ്":14151,"അധീനത":14152,"##ക്കാരനെ":14153,"കളിമ":14154,"സാഹി":14155,"##ിന്‍റെയും":14156,"കയറുന്ന":14157,"പ്രതിഷേധം":14158,"ലോക":14159,"റെക്കോർ":14160,"ശമ്പള":14161,"ആഥ":14162,"ബയ":14163,"##ൃഷ്ണ":14164,"##തുപോല":14165,"##ത്തുനിന്നു":14166,"ജീവിക്കുന്നത്":14167,"##ഗ്‌ന":14168,"മറച്ച":14169,"ദേശം":14170,"പ്ലാന്‍":14171,"പതിപ്പ്":14172,"##പ്പിള":14173,"സമ്പൂർ":14174,"വംശഹത്യ":14175,"കനാല":14176,"പെണ്‍കുട്ടികള്‍":14177,"ഭഗവതി":14178,"അകാല":14179,"പൈന":14180,"##തന്നെയ":14181,"##മുന്ന":14182,"##ഗഡ്":14183,"##ികാല":14184,"##െയല്ല":14185,"മാസ്റ്റർ":14186,"##ുവെങ്കിലും":14187,"##ാസന":14188,"##ുണ്ടെങ്കില്‍":14189,"തിരിഞ്ഞ്":14190,"രാജവെ":14191,"നെറ്റ്":14192,"##മാക്കുകയും":14193,"പടര":14194,"ഇത്രയധികം":14195,"##േട്ടാ":14196,"തൊട്ടുമ":14197,"ചൂടുള്ള":14198,"മുഖ്യധാര":14199,"വിക്ടോറിയ":14200,"43":14201,"ഫസ്റ്റ്":14202,"ഹനുമ":14203,"##നാം":14204,"##സഹായ":14205,"##്യത്തില്‍":14206,"##ല്ലും":14207,"##ുകളോടെ":14208,"വരയൻ":14209,"##മിക്":14210,"ജീവിക്കാന്‍":14211,"ഒന്നുകൂടി":14212,"നല്‍കുന്നു":14213,"നഗരമാണ്":14214,"ജലനിര":14215,"രക്ഷിക്കാൻ":14216,"പാട്ടുകൾ":14217,"##ാലിറ്റി":14218,"##ത്തുടങ്ങിയ":14219,"പഞ്ചായത്തിലെ":14220,"വസ്ത്രങ്ങൾ":14221,"മലിനീകരണം":14222,"##ഷ്ണമേഖല":14223,"ജയ്കി":14224,"നെഹ്ര":14225,"ഇയാൾ":14226,"ദാമ":14227,"##ോദ":14228,"മാസ്ക്":14229,"##ഞ്ചർ":14230,"ഇടത":14231,"##മുക്ത":14232,"ഇരുമ്പ്":14233,"കരച്ചില":14234,"ബിജ":14235,"സംസാരിക്കാൻ":14236,"നോക്കുമ്പോള്‍":14237,"അക്കൂട്ട":14238,"കൊലയാള":14239,"ശേഖരിച്ച":14240,"പൂർത്തിയാക്ക":14241,"##ശില്പ":14242,"ഗെയിം":14243,"താക്ക":14244,"നാദ":14245,"ഫോസ്":14246,"##വാല":14247,"##ർസ":14248,"##ിനടുത്തുള്ള":14249,"##ത്തിൽനിന്നു":14250,"വ്യക്തിയുടെ":14251,"കാലിൽ":14252,"##വരണം":14253,"ചേര്‍ത്തു":14254,"##മേള":14255,"സെല":14256,"മനുഷ്യന":14257,"കലാമ":14258,"കളിച്ചു":14259,"കരസ്ഥ":14260,"##മുണ്ടാക്കി":14261,"##യ്യി":14262,"ബാധിച്ചു":14263,"വിജയിച്ചു":14264,"ഡ്രാഗ":14265,"അപകടകാര":14266,"വലുതാണ്":14267,"ഉൽപാദനം":14268,"വേണമെങ്കിൽ":14269,
[...]
